function [Y,Xf,Af] = myNeuralNetworkFunction(X,Xi,~)
%MYNEURALNETWORKFUNCTION neural network simulation function.
%
% Generated by Neural Network Toolbox function genFunction, 21-Sep-2017 19:08:47.
%
% [Y,Xf,Af] = myNeuralNetworkFunction(X,Xi,~) takes these arguments:
%
%   X = 2xTS cell, 2 inputs over TS timesteps
%   Each X{1,ts} = 16xQ matrix, input #1 at timestep ts.
%   Each X{2,ts} = 3xQ matrix, input #2 at timestep ts.
%
%   Xi = 2x15 cell 2, initial 15 input delay states.
%   Each Xi{1,ts} = 16xQ matrix, initial states for input #1.
%   Each Xi{2,ts} = 3xQ matrix, initial states for input #2.
%
%   Ai = 2x0 cell 2, initial 15 layer delay states.
%   Each Ai{1,ts} = 16xQ matrix, initial states for layer #1.
%   Each Ai{2,ts} = 3xQ matrix, initial states for layer #2.
%
% and returns:
%   Y = 1xTS cell of 2 outputs over TS timesteps.
%   Each Y{1,ts} = 3xQ matrix, output #1 at timestep ts.
%
%   Xf = 2x15 cell 2, final 15 input delay states.
%   Each Xf{1,ts} = 16xQ matrix, final states for input #1.
%   Each Xf{2,ts} = 3xQ matrix, final states for input #2.
%
%   Af = 2x0 cell 2, final 0 layer delay states.
%   Each Af{1ts} = 16xQ matrix, final states for layer #1.
%   Each Af{2ts} = 3xQ matrix, final states for layer #2.
%
% where Q is number of samples (or series) and TS is the number of timesteps.

%#ok<*RPMT0>

% ===== NEURAL NETWORK CONSTANTS =====

% Input 1
x1_step1.xoffset = [-0.208208426827936;-0.0387339576948338;-0.0360855663720443;-0.0476893864245849;-0.143780699294001;-0.049437578672285;-0.148679426997783;-0.249209760721757;-0.348618568290079;-0.0975986315292372;-0.10911084048538;-0.41859276830445;-0.257146503977531;-0.135745573391879;-0.1212811101092;-0.347371322743215];
x1_step1.gain = [4.54656454656455;22.5674931129477;21.9683561276481;18.6648439280018;6.16438728476012;21.789746955773;7.29065568202999;4.02990948445494;3.08759234132368;11.4109985702662;10.0911554570091;2.75518783842868;3.73296878560036;8.63076897762197;8.61952861952861;3.20726646308042];
x1_step1.ymin = -1;

% Input 2
x2_step1.xoffset = [-0.907247595953878;-0.415534429080026;-0.42933506738059];
x2_step1.gain = [2.14717155141387;2.32930143861115;2.14979207651404];
x2_step1.ymin = -1;

% Layer 1
b1 = [1.3552366081415248011;-1.2214834053049867801;-0.81109517288749766184;0.92185693239267774146;-0.3971005765661247966;0.47127784119980636879;0.31433652305462506105;0.089516006420186366999;0.41808831475358615437;-0.049287182599988044185;0.60412198151951435054;-0.78325288666723635878;-0.72568318720345770245;-0.70457891768728597714;1.0021651632276065147;-0.971779581632702949];
IW1_1 = [-0.032799719346919546659 0.23004108985537763399 -0.18796354747617255443 0.087504663051945319463 -0.22991295814110415674 -0.032523068780982107573 0.034346381626162554579 -0.097651248169881632588 0.43602395745506161706 -0.15721730123053703765 0.14314645166907385976 -0.19933842968247636462 0.010623356100972692478 -0.11949533954571282812 -0.1316972817920692429 0.024924603992928631713 -0.15952065354769903727 0.1079155808030455993 -0.1085367923020762182 -0.089132644878464020732 -0.02429732642032822465 0.095921010813031323816 -0.23747335093930488359 -0.086911435822765753523 0.026759502389776271269 -0.27854164376880474752 -0.00042954101197371918897 0.1280401148891607277 -0.16663045344546292825 -0.090880408232181547623 -0.19427460785157951717 -0.23785071952871716938 -0.16852505674188081319 -0.12174966820472854501 0.073974545977450290035 -0.30191097217353896065 0.18923130174278715576 -0.19930983540439844992 0.037148930740986234322 0.1449646174377981489 -0.28335647783515743869 -0.1259134713929345728 -0.054479192801567745408 -0.054173952403368454134 0.093438865418485256287 -0.22215556220813004185 0.072211204429216580003 0.15897472509452809097 -0.039116263240960562342 -0.17090736126741490342 0.067409056875431055955 -0.079085080195312545959 0.1059365936089241983 0.079263024185296973578 -0.16509842412740707851 0.14841021286051392369 0.16934262071537539707 0.33115166082543834314 0.070230053585268320537 -0.10413160178902532149 0.012924550895113639387 0.093962239805114422531 -0.010550814144365483482 -0.095286097626630567037 0.0662802921138042761 -0.075688791055825904719 0.0073797939608823181004 -0.015549827764617225878 0.15333584522630491764 -0.022427463735781714982 0.050965594419432089235 -0.036101406153888564166 -0.048254479919164289248 0.13758548106553050716 -0.046047208316887522361 0.030048786581900931159 -0.072143009623603759906 0.13003721209125648772 -0.04677748144271132863 -0.042419571340255576852 0.10709443927785922135 0.22436976609010073069 -0.16836801617130414677 0.15408411075942862745 -0.19861817683117621858 -0.0074600877767764042781 0.17883039344408432902 -0.039682072449923055935 -0.075036565543854377713 0.10234865364164362489 -0.094975490392221986746 0.16467768203578930786 0.02843034614406044977 -0.05622361367981315583 0.13103465301952998967 -0.017521286243897274404 0.064368695426251745784 -0.026292377461045589315 -0.024926835405551871216 -0.024751168939511160316 0.16970262095189819762 0.12873902731400665989 -0.067911792775838253355 -0.025069871582153110956 -0.097222526407022308303 -0.052116864107850283117 -0.030215015245057118276 0.029378740271356645897 0.17380277266090826682 0.060470894031835531468 -0.033604784884232276332 0.041989725919123199738 0.011162625506102547696 -0.094590133517143237807 0.1896127444795181749 0.045840129858893421955 0.053843988287135345627 -0.32088849140400221849 0.17237574336086081139 -0.1025667228882080062 0.0062080711342035431455 0.081357383358502496917 -0.10824848886663797354 -0.12272358769685957902 0.015995656809836673873 -0.053577618476667629444 -0.0031474851314828421883 -0.094519949622473273254 0.11359452843736249361 0.015177279346690580875 0.081350313891622394458 -0.064765750623657636353 -0.071199744449636906407 0.13627781786909665129 -0.046431496586883710953 0.12483474924812587581 0.085096902560006543181 0.035621226107306842856 -0.075746719148973518099 0.027119935464276170856 0.0042338814435418994919 0.044130105467340800807 0.080555855892384203853 0.14726072901939796234 0.01667621739339654463 0.20894421520591505148 -0.19676515181835385615 0.086463172198338711372 0.13470491510230531151 -0.20626378763689998119 0.26459219194648531115 -0.033196591273481054762 0.025646086912316040651 0.23575125926742884763 -0.2172165989142626763 0.12525516858526050679 0.020462570578891323136 0.16649052817188914055 0.021011108285332331241 0.18508565693442741162 -0.25170985210543783683 0.17279420798899577938 0.065078784881967929876 -0.042941770583056065869 0.18153128713839083996 -0.055549751108507322561 -0.11146374818392404404 -0.088666400705560366458 -0.16326030084881604232 0.16659015662966428217 0.06178682979375652029 -0.026492207239039951283 0.14682671587162449134 0.00032180915005667731082 -0.10965093591395622119 -0.029716163353180273521 0.032435675630185067941 -0.19662916623235815461 -0.07187531933090970937 -0.14720361757044631013 -0.1016278011671017667 0.028941577572716065125 0.21178398330594488952 0.10898598516156415839 0.00027054172031551124156 0.093025493485970542351 -0.11787156406371822326 -0.046832617993154745939 -0.096336083964315324946 -0.0024268757056895851054 0.023040444235445264182 0.20404159901567248125 0.25905480884928827612 0.03317022436929382978 0.13941757678188271274 -0.061326560462212666158 0.12272229672209310214 -0.18200243012249303631 -0.087883822728585539452 -0.058646467451909461976 -0.072490610294434654204 0.066961943134138696143 -0.0057782623504698399364 0.053318930558114562002 0.12046698391622805147 -0.057381127430541641055 -0.15662309732835769105 -0.10602595018192478848 0.082608837191356254692 -0.18889290094540869824 0.099642397475872751533 -0.21492477116160860207 -0.021766564988951565135 0.069930405882225155079 -0.30844068900719445736 -0.014274441510059424076 0.030311419277435802666 0.13485843431400160175 -0.008807796340303666871 -0.061650506159228346537 0.084637497764862623661 -0.04011665819596986482 -0.068895575584454610274 0.066403830190816401369 0.059410792301855787356 0.1725356714041128281 -0.047752776670530593106 0.10283701498350629466 0.085014034559755785603 0.013500916155242426511 -0.078177138606636678575 -0.0068259626914600086967 -0.088714066985243866803 0.14402343607564310757 -0.13422831698453191462 -0.12339899115809352392 0.29647629126589669646 -0.040130733429347295593 0.087249559577870436367 0.033243558965546572692;0.14749979984007202671 -0.044512367375617367671 0.24142960258439469245 0.16708253571869066678 -0.019868917641015101938 -0.025503358037224088672 0.09031101651236150829 0.077045748852258399975 0.098003395517091917988 -0.0073307714423336001186 -0.044170860877544133871 0.11311948707142641113 0.085739887057421956817 -0.1780212244766849472 -0.15372467308064108327 0.11897584076906478345 -0.14246744555960211276 -0.086113359552779170092 0.013112642574452647651 -0.10563750087930040555 -0.067264862566742050776 -0.16800041039006036181 0.083837801235818756873 -0.12353889540519806534 0.0017888261343199721165 -0.18429040170367569362 0.036358908056151259536 0.14406513431323395014 0.027387457099869137733 0.061823401677326014769 -0.10447071139326077893 0.10803937709663812006 0.19163461512972410072 0.081422500457210333913 -0.23726603509134969183 0.16758268549956159554 0.020395116803623231788 -0.17952011037342507915 0.063919867969293470145 -0.04694008411635680611 0.18736078279917958711 -0.073937330337715240214 0.015261155355589837296 -0.00065789638804132632988 0.18973212822156174107 -0.10051877296788973293 0.071819865589231896008 -0.040852501436468083296 -0.13499854775529179784 0.0062343933218166405763 0.07205184867287284245 -0.059102016084007114038 -0.0073925247431827698086 0.20330074138724030242 0.0086767671977857341314 -0.031098521121398523676 -0.10580643688752974785 0.088548398142946654898 0.15096507771565775835 -0.09693212479323738695 -0.080379283925008468414 -0.01578524585353271309 0.14582402838019639657 0.11034721642720815571 -0.026355696723202148846 -0.075760043244002622798 0.0065984901471606415696 0.035563381435135425768 0.016522461656041473321 0.0068764296883746800493 -0.026692537351791105482 0.052551201288445592574 0.2017988382892289545 -0.14522340498617802851 -0.13430648977460746263 -0.069609254295709577232 -0.16813812329489891129 0.011046973578660065907 -0.23280168890425850803 0.1360388902053939475 0.015987956275612336121 0.030818068850250082691 0.095478266990233151557 0.029807493513019322345 -0.077411037028975837604 0.042972488347395171315 -0.10164451744034561087 -0.15624454702447060361 0.054075639310623598022 -0.12083360092969516741 0.095110073700515107564 0.072433853696082350915 0.04219160870702435423 0.044803204924865655534 -0.15834403895678472729 -0.1367914196301414087 -0.095939341126542315719 -0.14246578554863259525 -0.061604675795316893305 0.10955724486043610932 0.024145692739875920796 0.076938241138484242398 0.086281596701392293536 -0.066311572439080590513 0.08373993617949444801 0.20713580633845529722 0.14889276183135397025 -0.14452598186141263348 -0.2061583162819037307 -0.010763712006277303262 0.080484745140894764504 0.20095864253135947708 0.029148390073999143335 -0.090993216792468023524 -0.1687986999164242663 0.021613613753788011446 -0.028329216619668758093 0.098594710419964870507 0.060113284250946009968 -0.084482949926464712131 0.031715277397585978081 -0.15149147410681745862 0.029555820723971421016 0.098579571623173212203 0.063452669186209023633 0.068906479321528185666 0.11055696746452513268 -0.051435662389767516922 -0.12842658842965221089 0.18559183471461065951 0.057287753760754282772 0.099155055518632295719 -0.076232660264851689891 -0.049245157395106493869 0.023149730831830691441 -0.073625735927937474568 -0.1138421527954327217 0.075463448268729860224 0.15999161097138589471 -0.15499144811424639401 -0.018917257722995180907 0.046311479697876002659 -0.056985959246294549951 -0.064326109586126861695 0.10328754752639984771 0.012299145019064903345 0.14954712930929933701 -0.01625131539518189297 0.1922858708625038715 0.06589070255768748885 0.112210706459302062 -0.018234852758239952775 -0.058016812727806815753 0.025705297511235073588 0.030034011417915153219 -0.020337751880878454647 0.10881831134893676927 -0.13355534502939814256 0.3800355805215870908 -0.023615664255499685398 -0.046575430787289734402 0.084160655808968365399 0.09211599740247636281 -0.12092843398728661541 -0.048641619102509220385 -0.038085895593496871259 0.029325190151187844473 0.072235462214852205753 -0.033726539308549019491 -0.18285474338642804248 -0.056720225826117430523 0.0062774676452849453856 -0.092109948512861791747 0.12116877834377644263 0.040715780369652634918 -0.11465842377795140705 0.0013376050069376296814 -0.056950257835163914377 0.17756272664054745247 0.086116466673730268644 0.024110093932122645538 -0.0040047949977057781257 -0.041242169438694138706 0.056660747212969812814 0.14652756790992121916 0.06477212842519051994 0.17817398883274659926 0.023169144124267834761 -0.018528050047531923611 0.12692915557952105798 0.068435807877467474958 0.25811866022192408998 0.02364223483134694076 0.12262941563387166899 -0.034594895917252593831 0.13000280041321116142 0.069483912182011553504 0.0023802698406435833511 -0.23775880419396983045 -0.040273056982182239838 -0.072511537985263579964 -0.096560700160395987468 -0.05155184437695187194 0.023488713751631584703 0.096694928252821790715 -0.061323349917209897531 -0.097028173719467453173 0.096431901718457224693 -0.017840518493411693102 -0.061038106645226491986 0.014789463065098134437 -0.090032733592402741651 0.14551745928197712399 -0.089773848573042602794 0.067708793235433467617 -0.01097248941472941941 -0.088165423830638897651 0.11648646489234171231 -0.054811990191233894709 0.09504136533589402358 0.012090172086739989915 0.04882690293907339385 0.067777892469992773172 -0.038078206197560797441 -0.11373065569122083052 -0.070391552728948716955 -0.046323789855335251175 -0.047517489633325048215 0.17683084592706088678 -0.14147012397407879303 -0.030812049984193668611 0.1072599910047448285 0.037307359645243544366 0.098992388965896627173 -0.13715008001890383049 0.002872945534936987514 0.0478441263624970331 -0.010358554460052359775 -0.11432918709134373692 0.069088950247322922227;-0.054403072760404590225 -0.036460952154502374034 -0.058142630003526325766 -0.028781340698448946991 0.0093043569429408379962 -0.018592011920574552652 -0.10758131495078941675 -0.011552142662678455132 0.05828932486948178171 -0.26034839473998117043 -0.039586022398011247447 0.024676163156764567563 -0.084063440560053132034 -0.16096730837341255427 -0.20771964507250076371 0.065107360439153771914 0.071080593563482064035 0.19300401384503254598 0.18983819387577277604 -0.13853694870840785325 -0.13592363678504687519 0.097601840552344276691 0.059992154534786318321 -0.15846101102836479546 -0.027154877108766701382 0.29497717092700020958 -0.16354825891177959818 -0.098381007075617588065 -0.030235132057885014123 0.10764846169021752287 -0.080617013762456474213 0.040809491169218808926 0.12121392456563295781 -0.10343104634871187752 -0.056701862121804037786 0.30358605211722172745 -0.020017231522015926926 0.21850760084875428535 -0.031101535528652177187 0.029763903701531504303 -0.13749454341408567926 -0.047425153017557106216 0.038699708870265220328 -0.011223307688586731112 0.044071110188948929565 0.11820610686620898477 0.079034797185490349158 0.26629170015053910126 -0.0098829848997990105142 -0.030871442002803520244 -0.13247722477755777271 -0.059133889856814288166 -0.17847163181740877125 -0.032540228226948762769 0.082577331061527994849 -0.20421679399262721022 0.1237309249012914919 0.016699008106221342046 0.07702579871196751915 -0.051940489678188254963 0.35289409725488779523 -0.039718210685068207344 0.083364076031241213238 -0.024520016337421398495 0.028246035759872174797 -0.0043869163804756763914 -0.026521009489115753011 -0.089422693361732877304 -0.0030497454969810322556 -0.040214074726053622433 -0.012968036224105482929 0.21912439187637919313 -0.18751532426278333388 0.050692894889005177261 0.073915776936929661334 0.050928782446716988619 0.15382648186574529592 0.020717745234556165373 0.17948075052649267724 0.0079860457204608444048 -0.011940175770465188965 0.23695416691405507548 0.18030255034541201042 0.108195671243235092 0.0063082566373741048166 0.055639895647991273464 -0.033710227457291588871 0.14193744493815951824 -0.045705550328823105199 -0.094465331258745705023 -0.05044489000964218206 -0.00048612671396650042333 -0.076616461405564550979 0.016385526498823757557 -0.12070924592761622662 -0.049975833396158630961 -0.093470680423728427777 -0.011244970879865128638 -0.27195096701384896543 0.022827430570492558692 0.059069482470047174338 -0.069217873953736894221 0.2533456681922134357 -0.17241001699150618198 0.057630720155911807634 0.078122255449595029431 0.12967540117093909191 0.06445851729454028789 0.11155156508074327848 -0.0035626959851528493262 0.23195750517084082198 0.03636153713675108895 0.21059748223788807286 0.084689774795621827752 -0.15971578630453389658 0.040419403620298277602 -0.13368039234573664276 -0.011050756071946707393 -0.17360394980700866174 0.058144974097307164373 0.081779837035557648162 0.088224846318918082044 -0.0253748682779694687 -0.17499989636031432205 0.10397860670187632215 -0.031087370097775717664 -0.0095741437233766608916 0.18874085915923269341 -0.077957833373798732235 -0.056086592887377204053 0.14663452818104910635 0.13773704845518830453 0.0722216332090401536 0.066261784645886570577 0.0041401643821259281192 0.060600845293054053653 -0.069674599969577089009 -0.060521182945397669628 -0.06488114061990575554 0.24798769994864128252 0.21327946096334787773 -0.023143795822813853502 0.038914482591697691083 0.11700003662873183219 0.11091485223703295704 0.2282833997832413031 0.090308904795055267023 0.023853480979566622083 -0.17369764117632180422 0.14038712292900074052 -0.060736252089508564744 0.068764304960528890853 0.0050239953049022109677 -0.12226340772716390304 0.025601996608258473231 -0.0081153631891888941552 -0.0032665921560315336336 -0.041085580585148655242 -0.19263359519408179699 -0.069715506309912286809 -0.03032623630285452565 0.16029262999977772486 0.078706554046665072599 0.20497946148325468796 0.22735303620925181867 -0.042658804834508873283 -0.009744226255004588555 0.044153213403386508407 0.035144347266424527665 0.23316812560950556099 -0.2106070379591016839 0.095184031193033730167 0.042533963023997506392 0.11682219772863275398 -0.043026206193385166388 0.040107549997217314952 -0.011456230075628352078 -0.029385689590349400868 0.074196100729426964215 -0.066397784652405006378 -0.041047546041527438465 -0.080087357741401229982 0.162968383635668429 0.15521482601163541504 -0.1762782959067974442 -0.013739139886597369344 0.084787083020408868239 -0.071794127349311898101 0.063491487943806976246 0.00032849828165914390921 0.068013820396142871116 0.10644348822887021722 -0.0086012883800147595798 -0.079404544918297709222 -0.056911350247304121064 -0.23206550198651312855 0.14981171487384037366 -0.11151925671046936106 -0.36395769333748023699 0.16737097792891370007 0.056674126358735879561 -0.13189591241392961685 0.035516286895773893639 -0.011458440178171755419 0.16307149295927647614 -0.024414914945105455069 0.15227043841813914238 -0.17761430460175026136 -0.11932221879721777169 -0.080798723792894225348 -0.089335824129779195513 0.029527787190114482968 0.021965906909531325575 0.076065871114122288188 0.069054707445715013403 0.1126111990839363669 -0.033391152423601078159 0.069038593210736173833 -0.21385216522562003338 0.013494548834038173901 -0.05605827580913490954 0.018625285744881991262 -0.037590836271142687164 0.11379202410051517114 0.096854004903864907017 0.063599047711112341452 0.062312384100661408204 -0.004889862042358254085 0.016216264820365644539 0.017826850524968324008 -0.094435309641498238475 -0.061805140889784643266 -0.10915858692224808535 -0.12296315420760237092 0.044071490722068826229 -0.059213411534967022587 0.0067952739125771866729 0.24477262802733262825 -0.0055225982269524881429 0.25277750050536224036;-0.0099234912053179566427 0.062986126269827275026 0.038258103171582714952 0.015557193053255823773 0.063158527979789325091 0.073085904713078672645 0.12866258054985241222 0.023680724700688295797 -0.057446702529675791604 0.17051096589130862458 -0.15542388577759247426 0.05291431587920532309 -0.025686583429254866706 0.087670459466647365776 0.10217583171820265875 0.091398529698625857742 0.055649240817153264316 0.0035566179583066785674 -0.10244671987969951321 0.12726401787416896649 -0.29061895771541979006 0.079456022137649851 -0.053251935677060359409 -0.09673557062676826912 0.072186130048838753615 0.014301970559876541617 0.084881272055463113935 -0.096904953718096986659 0.031798738657082339931 0.016335955348133153475 0.070810472618137776379 0.003088749157111738558 0.15360750870011991021 -0.084857204686296497376 -0.050339008830582204768 0.080822931071916181978 0.0013937071440784597719 -0.23137149145793253768 -0.14225440362919031245 -0.21405308892546570654 -0.19839877014258031074 -0.051737650820624606074 0.15766963384900398171 -0.048562704493205537115 0.00074168142365339459476 -0.16436596610164866394 -0.092728820365785155633 -0.065995926984975847307 -0.23699668315988231537 0.071515497870534183722 -0.21024461229213234348 0.017889985073150694445 -0.022257701425096962367 0.06163627798791875001 0.1448816144115659954 0.16669234874496735577 -0.057472111005747672507 0.20675086973917039534 0.049389323510634214331 -0.16391014159358729962 -0.0070771103363247434004 -0.0039165661132822028601 0.13759257649107656252 0.0027733250300725174886 0.052316314158523544164 -0.10909395368164272189 0.070006006490915928531 -0.037548759871234606289 -0.053440058846759203037 -0.016478096476252222791 -0.039516181289907512109 0.01265719385764924737 -0.047412592854215535043 -0.034592610651463295834 0.16326566729255992394 -0.047287348370322709878 -0.0076393062694102217836 0.050300145476780952492 -0.035920258656035368439 0.016481182723903156639 -0.037320321805029678386 0.25988286690926537537 0.026904562558406196204 0.094117948014990279737 0.047496241141870232383 -0.020038577674409308038 -0.06829545356788106758 0.12189439315522537788 -0.084536557708773607533 -0.10834192020818217417 -0.086022901785229505256 -0.045500053332650822191 -0.075790726227253135683 -0.061251383958424152065 -0.14769450906575659621 -0.12996421130766094842 -0.058464583860030387708 -0.1383297372010304227 -0.28111943624975832545 0.12821897932270742704 0.0043392760589044832714 -0.098984571822379768813 -0.006412493316017543743 0.14093167810525991657 0.067443652037343843064 0.12767037773906039777 -0.015817580424874445877 0.061949189569584645065 -0.15924288696421312617 0.16434756723876117745 0.1167461245591171759 -0.050102270400506285219 0.066561380015782517505 0.0095681260344366442228 -0.010468775352486046903 0.072547320877446280774 0.19012518420493387805 -0.014214248640033592605 -0.13173178276514715956 0.021204792561761411779 0.003955540473508496746 -0.25177778024310804028 0.005888767565150908323 -0.035822950854706409052 0.012565182404391396498 -0.16878230534595281553 0.027042260992022601473 -0.070684189429832414153 -0.18479647797693032896 -0.07306928786973565515 0.073953597993212466521 0.12785700830076526802 -0.036581113539769970211 0.097204050171066383457 -0.091231282461638751879 0.0031521155737966113919 -0.069999973231895010195 -0.031316211427832731096 0.11848891836241892683 -0.13762547499214422553 0.053192665560154020477 0.053511705871166347082 0.068325638535330218692 -0.070167003658919896436 0.10782157148808360625 0.10566722423765106953 -0.1429477627393423711 -0.040615627126204673081 0.055642721231341021881 0.11829710672134043092 0.2322298189434142679 0.075167673168953841323 0.14182996703748013134 -0.16111086564290283407 -0.22749389702123418155 0.088283714633405632743 -0.096986454487093282095 -0.052069598195600669266 0.0056692499100997346267 -0.21609077947727459157 -0.068520819630688095669 -0.13076452446980252331 -0.011827041052901228479 0.015800975793159741101 0.051589334710195972056 -0.040868706144977666461 -0.17919882727220054486 -0.15347788654266980579 0.090837855136591927341 0.023060329222928752785 0.050316604138470839847 -0.00142743678942885803 -0.079202982728845239269 0.10098123661573993326 -0.0093309264839918984458 0.13241169964949897619 -0.025497844317924275859 0.12722006173760108672 0.088886846183883053141 0.124463314259417826 -0.075015419110939104974 -0.17346909337748311897 0.032169121246079700194 -0.045660275282967476007 -0.080787803075418052057 0.061321368987208468848 0.23639706776184238324 -0.040880574233517361082 0.0037219546244487214381 0.11476133175585338797 -0.15583312677090868648 0.0021536765594428733048 -0.015204161039745246048 -0.11482835077843235594 -0.031429020434674603823 0.0069241028497637573114 0.032498114971150765529 0.054141042417314162727 -0.09610006573504578653 -0.055777516385540050481 0.21136714678226584119 -0.0074561634381217697931 -0.11886664096714459615 0.081272722746846853825 0.014331685408459356873 -0.12712287107010028508 0.10618951902709411472 -0.052479862975460728203 0.11565561165293518353 0.029634647536342623164 -0.01875239193486570588 -0.023785403068130237664 -0.049105159191626134019 0.03783783741178899096 0.11546132793494853774 0.071859286725702589682 -0.12796305629109758217 -0.084961934848898648664 -0.10787886777284413919 0.13902529248965292408 -0.013608447923715731587 -0.024165961663523478908 0.12247199377962472711 -0.095416217275510528673 0.14869245683588264151 -0.25406033892460949675 0.13891473982551938438 0.078610927275241021528 -0.17101547565267466444 -0.0018807476222433908153 0.055232292876858025965 -0.1277594293100603462 0.16483144147137698821 -0.04158229277995115214 -0.13174610188735588756 0.23000997791085056599 0.050175685767649080837 0.060563222807911869239 0.17490270103589075634 0.15670810121186967701;0.149236117491035436 0.055652092638524185142 0.11852715564873983478 -0.082835541008474733449 -0.082125100729810593392 0.10007072524764434873 0.2048377153546410423 0.084734132643628834458 -0.1385435165272280722 -0.089696029434352703147 -0.013029510883103979924 -0.036504590180136957389 -0.12031200267624168887 -0.053323056384813459496 -0.27100335749137594021 0.055875769704605199317 -0.061463431494380126041 -0.20877389548208286074 0.13426003091421606639 0.07280021099835004561 0.053132496655334093827 0.067644593021232338192 0.12287020575133142386 -0.0098260816942470421975 0.20881293791435034946 -0.12225484240762179988 0.084703653802715508925 -0.012883531230067919726 -0.072024254611304350249 -0.010560566390370614703 -0.1212139890294038902 0.1006883569661113087 0.032920007846993268319 -0.077762259349665741048 0.071004105472638939789 -0.069783867673747793092 -0.067438470231434621827 -0.025893565418760308011 -0.1463611730956529966 0.16064626101137863268 0.062285749622318690999 -0.11139229680193028782 -0.12114564820089827879 0.11650095795457909853 -0.072413832951292125828 -0.038041028926408745892 -0.049521611488787198319 -0.078530627309280759407 -0.042289123032423298065 0.092583905811311886791 -0.014502924306157925771 -0.25517580900353886708 0.030408971082468743558 0.037402087061889882635 -0.0034070746086572317735 0.055196954475479648172 0.082799037215804879852 0.0043597748451065726841 0.1654253562512633946 0.051110580163963484357 -0.15812304257569625987 0.1363050798064562863 0.027790597477683247341 0.047930295551735564719 -0.02490839941966351001 -0.18318580932497507963 0.02163020638010426655 0.15344086950554852722 -0.015507000189752068176 0.066550646929080969905 -0.16400599725248624083 -0.10273988184101082166 -0.10324811532401521885 0.17401707464453969321 -0.16196380522075759512 -0.24521611481169797164 0.026995825271370406384 -0.004284934598773222636 -0.13105773331150186167 -0.024848540115019870922 -0.098779944307589823138 0.14512451840368548184 -0.10634315931094648344 0.00073099040509896906492 0.0011890939485774808942 -0.16264517311716364389 0.18591535717031437702 -0.071952655244280031011 0.013134694224340569269 -0.086777101975367060271 0.021818907506138636443 0.1588256975656807124 -0.12830717396422841592 0.094274875040507424839 0.064728781804273605172 0.0094840057184249308697 -0.036570145860389632886 -0.070631377620220259228 -0.037994149912607938502 0.26724912681060830622 0.092217157090439136335 0.031351368223878212094 0.008373554340837781676 -0.067673915738345427617 0.054278179299636089561 0.077840149845309472565 -0.03908475839310326938 -0.017136536782494764253 0.09916039499167536575 0.073173962342301529516 -0.16455933402259845244 -0.061975800389296939463 -0.033495586904938770556 -0.11932450012869652567 0.054979927170089315513 -0.11159121459571644253 0.034557066181158294094 -0.25968430704480593985 -0.11526892674171994313 0.16427389849615256501 -0.083359211125031265621 -0.2115285729695032535 0.027041753137662029316 0.20630111318545790722 -0.15177906767348672834 0.012672684854470494392 -0.11488493151151926708 0.023310689424782902318 0.045664595769345034393 0.3310824650197614627 0.16858747956545080959 -0.069170318746848133418 0.00070606049770669671029 -0.056369226981192191439 0.032366043729520448113 0.13499018538700680025 0.10461217858100951839 -0.030805372399055640231 -0.015203341848865400271 -0.24412340991268499657 -0.25160322108701360655 -0.045613065989228748776 0.11196225306326289262 -0.12112728153132240605 0.23668997770364397226 0.19964286505457465304 -0.12465571790845982048 -0.079032318943509621834 0.078362425165072857602 0.0022355594936833110553 -0.10671283079928109427 -0.22698271961760774218 -0.0014014850006320526271 -0.048892788123471087047 0.071993047586568326146 0.0019395405312526564634 0.076114239221186208439 -0.027719956557603779579 -0.0082581645459423452804 -0.199274600838570487 -0.32917524798861463875 -0.19168379630860396534 -0.11466851509166202383 0.15119452053565757277 0.088101375163166087412 0.087158310031861585543 -0.037648232408489953893 0.10254250774992393347 -0.010879499910678934113 -0.0076245072647203740793 -0.062811873421886321722 -0.024521586743676628689 -0.072229477251371715374 0.09068954297737165382 0.10744852050762386531 0.096608891621257741988 -0.12946207610704094093 -0.21480712922390421404 -0.013266691000902303132 -0.12291251681742181023 -0.10723569645764829961 0.18954506114026181685 0.037423611796957328979 -0.0057666228501012765928 -0.029439528488454085736 -0.023550420220469457655 0.051628170331955561267 0.022389387930565302076 0.11999800139894489792 -0.057798924052220715386 0.05009424226822925541 0.11282477081280568865 -0.15030652071222122546 0.28989384575244186992 0.023495724482333897598 0.14125284178329022833 -0.12305445786246788087 0.064390903337898847125 0.04537287989580819636 -0.19804556184550264897 0.25658643295669475437 0.021649238108656123497 0.22973608413698151653 0.010757053909148633908 0.30160613107467260097 -0.012927266110449663061 0.0025145411822123696702 0.031245841831047869303 -0.26514295258100006869 0.23525046949654004891 -0.068105740465502453973 -0.088492254409407430926 0.13391959782051976457 -0.068148724736589075257 0.081454407402050968412 0.1270801718623766341 0.066260888724740285571 -0.035034284540140431252 0.084203969307530934785 0.053198042949266957646 -0.22187428177202259127 -0.064420561274299875665 0.051847229541220923865 0.17058960342460249837 0.037271978009317849323 -0.32100319847364366943 0.21705203988284735295 -0.16797817511856008577 -0.076645698698074860022 -0.059713634097173708126 0.18955804622276872795 0.089117995771439972863 -0.056538963674415083915 0.031688799338220649537 -0.1653893243526409762 0.090615010658047376313 0.15704564531675369032 0.059181268515556509358 0.053268624434587880101 -0.067475123721545571254;-0.10403988210405118453 0.042838775145253471521 0.05370868341613196234 0.14520197922287680914 -0.13763674414607746099 0.16699860543084055209 -0.2914733319615119278 0.10121789101726760829 -0.0048357954226277005683 0.074142668653887355834 -0.039743122389553985074 0.11693838532896315419 0.056986489117551830663 -0.031505981745226625812 0.10884346930838961764 -0.21555219828090335654 -0.19482841563212247027 0.071318631929634640487 0.044941171924265999049 -0.045999305684698392482 0.101353425701498287 -0.045857316108234361107 0.35372876585472101674 -0.06970413036383006633 0.065857099078935291137 -0.030001274181334258023 0.1033604232523027272 -0.085113343462915352911 -0.057812515211325792019 0.0033761277669530249945 -0.0024493923072473958169 -0.015963980230079322792 -0.30523628223683446636 0.11106527647528108282 -0.075893199470239355864 0.0043578345376546444301 -0.055441125493708449945 0.046112008755035203966 -0.070987587784702377292 0.028719644231659992306 -0.16003479930898717454 -0.0519813276648023459 -0.0051073311492817220769 0.074636490855795101229 -0.088382708736308240871 0.023529958196095344947 0.0089804051476993600189 0.091237268412530575512 0.082196438233575780385 0.082641684778133786549 0.14599752670726162673 -0.045559452070604695983 0.10312567603230612945 -0.019974720689918790129 -0.045334944543923408333 0.10982916659274415128 -0.0048416872144844136372 0.092667536606795025689 -0.10347047599008785124 -0.095497868898451215847 -0.010105144135826395202 -0.10450053053546437543 0.015909981913679413501 0.0041807576879700387995 -0.01995354061512472077 -0.052098465966133183924 0.070052431425885575145 -0.21394022692900044325 -0.089848453822005236447 0.045635754367762175476 -0.08028970202620538954 -0.051267153704399159864 0.12336716158995653103 -0.031471822121672626826 0.19169582850283323205 -0.12171656849053050231 0.099255240798085481169 0.070066057234982298541 -0.026801486378342273542 0.041171312103776405711 0.084671568859424103937 0.019545574539349068466 0.32140757181388168728 0.12693821666173091267 -0.043616017954934485634 0.18003194857731460998 -0.11061272730638366246 -0.20946931251525230389 0.010100352097658277239 -0.12198937838846461712 0.037244482343803161917 0.096524152759908055099 0.076469574107106613736 -0.014232371646699952875 0.024032810664465005523 -0.11139119681646693361 -0.16740747681006834524 0.079449643311524084655 -0.0429416048551703039 0.030224117626889999977 0.038555279065936941263 0.19510862939179179909 0.10521317005989241911 0.18604586399046024736 0.040574393353973677023 -0.049537219281371253077 0.18919193117757299172 -0.095702077211845537619 0.039355239188251067706 0.030227914679505935719 0.14663534132914965435 0.065629906980583782583 -0.098850645202324380345 -0.1473794096163015821 -0.22856877128965247259 -0.047523461719349180399 -0.025699004023734907387 0.065704899142468742301 -0.27876421284530816802 -0.016459456560545596832 0.25833288800282744324 0.049013133186451285361 0.12182922941178825349 -0.06642502627606329535 -0.1291706356997895655 0.040468921972509765139 -0.039751734205183249238 -0.1205366834799340009 -0.092966200777702151514 -0.061143188935351505675 0.095531480783288172387 -0.048302277040662706942 0.10154028059957263819 0.085514812826824410097 0.17572995875520736053 -0.078299027704570672848 -0.2832331902271925661 0.0067609664920884621903 -0.034688077415619952837 -0.023039527492457145125 0.034485288448544496043 -0.068661137981370870542 -0.018775407886133778368 -0.070158913458842092625 -0.2060158271384321671 0.070142727214012767778 -0.082777840768327379251 -0.051711377373821365566 -0.14489692179820565232 -0.016987035108696549313 0.061961648410003594689 -0.08257299281340269026 -0.12241350788126856286 0.15193034360927390458 0.063901345320573094133 -0.0011511284865352959528 -0.084931883882822023502 -0.15354071689552784008 -0.1796820437566409856 0.068230780552992628674 -0.019596708382681814198 0.14437960236124847135 0.047835664531766471097 0.200368393849279125 0.073934377854474112035 -0.04712101766715452722 0.14405719933905070107 -0.11863258626907038917 0.11260965078211004897 -0.059207635333690569746 0.017262245124148402342 -0.030051582335422089703 -0.1055377238345448776 0.028918889325523944311 0.069095069838283215691 0.042680611855014122247 -0.0066663007510383495702 -0.036564388440931530622 0.19748327361379591771 0.056759306453900863765 -0.080566856324496505248 -0.017831508085966365357 -0.04280935622374287125 0.1004183864147802363 -0.046800474323787040476 0.011057474084940864534 0.046640176403052728549 0.10313781989055467725 0.085395148629826417297 0.078266119192832411811 -0.32134296250620669744 -0.14522550756913349401 0.085333597815946987675 0.0013488793291833202359 0.043851545312196690829 0.091089152584570773352 0.1335037790691415982 0.04254596741323550535 -0.15376180146544096705 0.011518883166277384816 -0.048685384776820356256 -0.014181972913147402465 -0.14132802343990660821 0.068191021552075556378 -0.11982019749354630433 0.038952962698037225941 0.047920942418659975837 0.035681803012330134961 0.099533258934348375901 -0.13566543750622264697 0.044274469756398211751 0.033055684176907337846 0.053200827026642603934 -0.012347770343028790369 0.10257948983868367399 -0.049764480304646675768 -0.031720346853450154256 -0.037632209004022809662 -0.06965729282424236446 -0.17376508022240558238 -0.10284346690193404972 0.062172931174341569682 0.014263120153282314584 -0.021765958424432019225 -0.20851748463224986652 -0.034956469792677899444 -0.094903858895085943526 0.057231483438445709955 -0.051606923215170116825 -0.064667107604200205206 0.03116788879255058542 -0.1427197981471768351 -0.10370474443389934849 -0.025311026709240784516 0.0084412383486148594158 -0.049448956180675456007 -0.070129285835095631074 0.08297926024690524538 0.054768930899157325376 -0.19460240480434426447;0.066159285963258582242 -0.024386900874601241673 0.040461272628577675536 -0.010164154704696420906 -0.099888948681621292369 -0.016668225602145276404 0.079759739789748124172 0.076831907371560453912 -0.16438971956032527588 0.32387206682511571199 -0.014934287904380312909 0.13954319446260088355 -0.040487102745141945181 0.10077503118143547878 0.10346957944655893469 0.058831493583176602824 -0.13559802528535783162 -0.083936170707037668914 -0.11332497454767163914 0.031270154072661246469 -0.0028439943849356240368 0.1545525024246895418 -0.18420939780205169978 0.079409067539556621451 0.16214881422679455758 -0.10391117699722594858 -0.013201879424482577258 -0.092333531520773934331 -0.075788785875351150079 -0.039964267894474818366 0.0028737548517230333128 0.032492615946658455484 0.038609505466262364348 -0.050511159859289639362 0.03386688931547848086 -0.10943769979799122805 -0.11954279607735834867 0.02416663176737478963 -0.04743073261945115332 -0.20263255554083686727 0.013558728385011932852 0.037596354341263640841 0.24270416846917461373 0.023351788237767560907 0.14219516854826397267 -0.057162348579790578373 -0.12463522092263268348 0.025002090382947501218 -0.040656876842108453929 -0.10594291829504308422 0.072859901968932647143 -0.051484692334896109411 -0.087906268214795635352 -0.038813316293600470808 -0.051696603802286564266 0.15203700524218508039 -0.18809185301445488503 -0.012071603766506344702 0.017684654517593077078 -0.094356737446620889131 -0.14320813156408421229 -0.06476761322819685196 0.025188705022836828384 -0.07898934198853069244 0.10212615356833776303 -0.01014820035613026028 0.097149064039013771632 -0.034674946413391874445 -0.035903044847256156136 0.13825800114628966631 0.13105668617211238547 -0.045546899659601472465 -0.051662409517955337757 -0.17169716982309871089 -0.068708678167735834363 0.0032314131094217518614 -0.11700429457869687688 0.10715267207111464631 0.10920127024810560856 -0.01205139251554180127 0.025791701745212596703 0.077808371313008981018 -0.060482212666567211623 0.062649013634362038516 -0.12471891124788264671 0.067013292558980960822 0.0045313562705348933712 0.0043944524716053243174 -0.13729395776101782634 0.092018092391585301626 -0.069983350112421766065 -0.089500288490535387376 -0.075371082097499680907 0.031514499560851103044 0.084781814570431823785 -0.15457786190487338152 -0.030494189185416742394 -0.10312794937257709071 -0.15457443637618306642 -0.01488433044566253062 -0.042312817630214834275 -0.16737443093065784705 0.050719415088386468615 0.14361960617434549325 -0.12593482674405070965 -0.014796904643001228263 -0.14478559072005342534 -0.046608273843543608639 0.031213614280809189039 0.077319328924928404367 0.15985619189810759688 0.042111836161994820049 -0.17275134531235253332 -0.027058639151703041403 -0.0062262098305969279521 0.15701345181165712872 0.055371741681072408903 0.015865821339320677896 0.086591808098933478743 0.048586274930849937537 0.016292790605601476656 -0.037582928900206785672 0.14314730566027672465 0.078836869336687709353 0.00086739603536052992117 -0.14008747447784139495 0.054168438362624228566 -0.13051280220912170327 0.12938426555450399658 -0.15921463628189444495 -0.063490321101590890818 0.0629477176947664252 -0.060204073272443092701 0.0020911771950082869154 -0.092253539652108279556 -0.033297497454123678451 0.12824850522913866513 -0.11936521055636123423 0.0035572453358973790336 -0.012098862154769025878 0.16440933037740237954 0.063436736600426368859 -0.16572552821847413851 0.10601368777447804648 0.26820970424059703552 -0.12406829722928239268 0.065291779189681237172 -0.080350946190333491503 0.014489620980276965434 0.013465716690937667294 0.17084137596764137346 0.013173430031448132155 0.061543347245897252196 -0.024440405863102469819 -0.10278634327786603797 0.00020834163422205065341 -0.054517307854239839549 -0.078313006012985186821 0.057431916171129561433 0.069343411942052096686 0.11837399303496685954 -0.043022503813018503349 0.08064465148956602436 -0.085958486525085905927 0.020741653259628213546 -0.00040691878695906912727 -0.16555557344778215612 -0.089654236917176527433 0.13139389339216572816 -0.15802053939104698799 0.15564555175814170918 -0.14451942889243155066 0.057140151966615648771 0.15394091858057917799 0.043211792982025404308 0.029588471367331701384 -0.026082189926738170993 0.10387831820365098223 -0.027149081496529593738 0.26458571791001772588 0.026212346703973751771 -0.22151182500111035734 0.019629534266531741687 -0.031963099493012632479 -0.045231798474472485749 0.023550978617231408535 -0.017809322510211344354 0.034074956904181108452 0.20846036309308574319 0.076978908389076630692 -0.066507507331889675894 -0.05510748979593995539 -0.052336000596938214713 -0.1172764155992068319 -0.050092596380400741807 0.05388105542387021385 0.18751843492345032782 0.049190145544247755593 0.047833164948439463315 0.038413001277968462921 -0.0010483495640113277281 0.19230579378799148027 -0.21460184604467802405 0.22253066296834816962 -0.14982882009269246626 0.052467701048924834939 0.017095589114606249415 0.01762462969159232784 0.1705531782511740535 0.094009048226740138388 0.0019158688968515802387 -0.051989696194433082654 0.01795640836367931939 -0.0086600965015107434636 0.047148869174523204417 0.015246836493894813658 -0.035255358043352905129 -0.10546013725401387484 -0.050255335401814649199 -0.11027938449178648073 -0.043844517238097874268 -0.028504508619618271203 0.1821075220912139192 -0.2022711954292869263 -0.091207509468223327276 0.024633185790087445272 0.12453543164242372732 0.036200808860663957756 0.0094290336135594288169 -0.0034910716855688327109 0.066401287442730994037 0.015829123595929396606 0.11116434216520806877 -0.063180020330882533108 -0.027535404485039351868 0.17301906976538161675 0.037208252257469445756 -0.1146008070074071572 -0.055159429458434557081 0.010336568037717288465;0.0039861022333930878903 -0.04090484454971529682 -0.046016614306250314126 -0.061505170477010415175 0.091528752217260991864 -0.036096108152839728733 0.12918391147682270481 -0.04934944662674280863 0.009705788855957124539 -0.023132227377749767228 -0.013677494122488330353 0.047204187614309618681 -0.045150201435112273518 0.092464254767143191915 -0.19701597196802636547 0.16738357921969376774 0.080131051213875231776 0.019348713799653142337 -0.037470428283686817161 0.001319633924996497544 -0.048972641092671208296 0.0040927473678432973667 -0.16322710230161238676 0.045315847950301031688 0.037548921882770161518 -0.074603512491253104466 -0.025000627172575229373 0.03277800780885502252 -0.065329486078689796846 0.014198307000520937748 -0.030937492391519206408 0.034008381971209956929 0.013346571295765084081 -0.048336871017143817619 0.09979443392229707388 -0.077868120074607610759 0.07490570050828435078 0.025613670723702193499 0.043476135883371680446 0.029803066954762414548 0.038834348312943828274 -0.052919816418396437019 0.030359862827393786777 -0.10490824107750978955 0.039695045757321217872 0.04955517450685599512 0.0065057275144559997132 0.044963649654406592782 0.10956315494299850855 -0.082899035604145132616 0.0115201639886511574 -0.052924584113879805103 -0.02528977117086398177 -0.059449527562878586029 -0.097199463733123755982 -0.061420858241072850969 0.012035292510453206999 -0.007053176059504603912 0.043194183677307748659 -0.042497236665900745001 0.027169827471252259998 -0.0086957657942111077354 0.022746675670438500777 -0.14959601519936646663 0.054754199640738243637 0.015138885601754373256 -0.019260433711221464081 0.15686521893728300192 -0.054449298810120352887 0.03030148298564729753 0.025313166336360964914 -0.079710552795242944901 -0.069672038770277666675 0.054228021793762432035 0.017132177923136000103 -0.055382559941292194838 0.0016481736304329013681 -0.039773848737900990846 0.14161342656506104021 -0.097957785946283237877 0.065270079978758083206 -0.021417335644463665612 -0.11223819392098502434 -0.069773176049538962462 -0.04291584713393983147 -0.029733040254889705339 0.13002022141443070335 0.0094075726984595153812 0.01132506027724047501 0.031106490977983448226 0.0012461609889571484411 0.0056838481598771072381 0.02891493034164949183 0.023137812831485242426 0.014422180448511876666 0.10624396771613436874 0.065537854417839699894 -0.048004293585057540572 0.056641405420280364902 0.030487319400427752292 -0.0026856659548424007336 -0.051132398431983562548 -0.15991597033241358727 -0.031668489083888889946 -0.044225788668983079255 0.066633870644386319904 -0.063739956548821571913 0.010187134721743620197 0.035196474004997410634 -0.024633047646655113067 -0.11615353029010910824 0.10293978201153797247 -0.009690475941439624652 0.040837996923352409828 -0.002043802705873891401 -0.027815079380692386835 -0.026098211291830569758 -0.043184269903849915873 0.15248306487725787894 0.023208392964619663223 -0.078804570558236336497 -0.11817723791708259484 -0.035984844609665764259 -0.00059144404185199062063 0.076160595549104620483 -0.023808636515579711945 -0.0042181741325618415939 0.0033531191053563650165 0.076744345033378291721 0.065588171569033723585 0.0095350139033720353321 0.072275382702092147436 -0.050771772188515085222 -0.033588664283488112172 -0.044325297957221149181 0.030409947822940333606 0.085543011939970783897 0.11779742235351869928 -0.018310014953561361273 0.017572356897880989091 -0.094662452468240995684 -0.046369533315663971629 0.058859610445773639931 -0.043257979168177120022 -0.035456798717775829533 -0.011602580940048292171 0.0069619256855743237578 -0.13904514949043095262 0.031547547057755150057 0.014438153676882507087 -0.014436749728053874589 0.023398934036049354179 -0.08177059884304586912 -0.028592645583772894474 0.00022407795592747047075 -0.012079541977747996345 0.077561043459004441747 0.037741681197549656335 -0.007561962545140247377 0.0094738482667640414037 -0.00076802136308712267571 -0.085380993726849055414 -0.0364869367855006968 0.0020824626607388041499 -0.011601922602103112783 -0.033698432474355957678 -0.08317238239640196984 0.076892085707731150368 -0.025967100781645453128 0.024753597333620657589 -0.07210863457920987929 0.021480030364817097321 0.0708269649530935963 0.010482508135239250111 -0.10479788639816395301 0.024253844499572158044 0.039875694954360094147 -0.072964679626357553666 -0.088118089595298931815 -0.12265528408825729367 0.060555471508752199694 0.019128899648808345146 0.11123098922936949795 0.020066498394762728036 0.0055948648475721805828 -0.0080182653552806470304 -0.03187851181225886954 0.0057028916115454747135 -0.0034749319685470798913 -0.13991374381049251352 0.09057269475619594834 0.11197514652723684903 -0.06498801375513019174 0.042573495413560633049 -0.0030183149023910362668 -0.048720509484391036348 -0.073211958631942908315 0.01733594271916979665 0.013767494205238050425 -0.01897151835584490881 0.025184461958632928247 -0.040738849535574696292 0.085314932098628934454 -0.018508285829265377909 0.054230885554676803995 0.071920554924150295606 -0.011396370231843189896 -0.0080851918702660591221 -0.058392975404935251738 0.04947130266229263218 0.018170230242069311533 -0.024130603089378789561 -0.026606961695920465505 0.012884219760025147558 -0.098090630360765790341 0.038205849708038273904 0.0017777140439412773831 0.13868598140466140145 0.072132124461716656816 -0.017191479403900818135 -0.0085844246325052879498 0.015944463512287048584 0.010343307303210178688 0.032394536795927283968 0.003598958917300647091 0.080659693176603208808 0.056412572767011559538 -0.049585745441297152114 0.070900875074106584073 0.052505429546466628188 0.013660806759557091866 0.077891813496359041391 -0.074511218742909807178 -0.045356831626485939746 -0.035549583709987966906 0.0053134256245935809412 0.06889931221649368831 -0.024100546515484447263 0.043319925960230411255 0.024720312595790272514;-0.057554330070776905937 -0.0011744107477135966311 -0.036548201849912947958 0.054970474864430893258 0.15629848098854409733 -0.17774842566014206757 0.031025943304456547051 -0.0034027744565714376779 0.2299645332385366614 0.034842165386007845074 -0.09239608357984678555 -0.10995872565721528935 0.11832350473637198718 -0.072520926421941425688 0.29312970015420208858 -0.18743003359400894903 0.13310225587443225148 0.059137045825400316734 -0.058304377675410412607 0.10622336014136950222 -0.15767974522681810212 -0.11691180838813192144 -0.039641303342327696702 -0.10931000747747778024 -0.26572550908925562929 0.081099459869745552099 -0.022891053865905321152 0.19392049487050544432 0.22641722673700859225 -0.084706482723874154672 0.26131407792119831779 -0.19913866070952096488 0.1182187487045326113 0.062830342131994038057 -0.0076537112317503711717 0.070687589883008744573 0.038607165488006078835 -0.062553370701571645029 0.14456084345820416348 -0.030157929573101226184 -0.084715540779731979271 0.047634185950805284226 -0.079278652030157825692 0.040453274734818814307 -0.021770392743300049504 -0.014574600316397338939 0.14719019981730269153 -0.15061764988530504383 -0.13595465630575193083 0.058318754557930348181 -0.13976364615171821271 0.22412679257115553089 0.17063732207571888355 0.10805637128316523954 0.083625287355154384605 -0.0021328376774059423782 0.10982649815294433238 0.18150734049760297584 -0.11698214237932848258 0.076222853221627223652 0.10673887014502853043 0.01537618765574726154 0.038348460232784147006 0.067334727702268365457 -0.15399730438118502951 0.087251244555397206026 0.0016713886761610540106 -0.053977983413318803008 -0.0033922528975975918542 -0.19421404184923327096 0.17089927289179296377 0.19993825762867226126 0.064020671123654337986 -0.022103010143524542269 0.08044582501656265261 0.29013279153623622308 -0.13605258775507517166 -0.05125299207884488617 -0.02138417647358947446 0.012029534107490170991 0.029114869413485764543 -0.20122449926830099365 -0.0042045454152593621233 -0.05546882459567058915 0.086515452654088664808 -0.044650566477152681122 -0.13193288698952371218 0.10317507023171373914 -0.019057107315769226952 0.0035698565052203635323 -0.049815305015605590433 -0.12786252023209127016 0.14062535031357570325 -0.062642465250641210517 -0.13439924261832475461 0.014614488477790503473 0.20421442743429063515 0.011442796319708566782 0.072310443241865640651 -0.2320691959468311194 -0.0037096633307073384467 0.02798480304428409976 -0.033285837052428997318 -0.039915359968321274808 -0.023953063793692858097 -0.14243337573859798928 0.14628700916879833205 -0.0068384626059818411081 -0.25883137660094324151 -0.050538178659113482116 0.033410162616917010725 -0.11146278771717255118 0.11229890766858154072 0.012439025035477582065 0.14177055899899010383 0.024021790342232847426 0.051693601329894693641 0.01434684872811908124 0.019001961693317734325 -0.13745978351831780739 0.11673821609578988179 0.11836225469430183832 -0.11854186810800085294 -0.088015231338123639526 0.092393553057982663601 0.0897072616158068048 -0.039811983940014179784 0.027633743186426671518 -0.053782191558892369909 -0.06771453590578950521 -0.13337924732842626474 -0.031232591976801293149 0.010357081818687385866 0.027515587797583514196 0.049276799521813685612 -0.05161961394785381102 -0.14549186465539615254 0.046445054885731085204 -0.017409454305255339657 0.10805475801168304417 0.04238099959070289191 0.10520977344475213044 0.071447185832084120216 0.058523002981566304981 -0.2466380953706265311 -0.11894247249040434955 -0.034141287020044423783 0.23823049166988166658 0.024618232578323212545 -0.063157905728736390971 0.089540841593668082932 0.091986124695808579865 0.10717101974770426587 -0.078919869438719897348 -0.086788192676010789128 0.045144237473578326114 -0.042298655593043701928 0.16443689264878305623 0.16528694275019181759 0.13465196997958991942 0.18910717559517134512 0.12391870533540760846 0.013540176069549360316 -0.21360299774359162162 -0.15978046751601085451 -0.00057580719451379505647 -0.01724045042615286738 -0.071568495697548237255 -0.060051442084914211095 0.073308627397293768535 0.06129040858894235777 -0.016503033619386285602 -0.0074503271003439636849 -0.20155557269802118481 -0.094191412031035301466 -0.14338883330373333735 -0.015806842170443785589 0.2379758874774133004 0.060217746095716347121 0.057313489016337773596 0.010681964822213022015 -0.079261511099746814746 -0.075230156180020879564 -0.033650910614410944888 0.089501128642779231859 0.067728342920270287464 -0.055303499730448721361 -0.011568514238014348042 -0.25900819155500887092 0.15470705285836883203 0.063501140028618396904 -0.077332455479793810182 0.20819549929710845504 -0.18608672715010782239 -0.013701486568232078278 -0.090585900355339463164 -0.040309028737507510143 -0.052170420515537475892 0.027634514625757725798 0.13517047884569155514 -0.23649381620351664357 -0.081233733438580438269 -0.049034638702656077602 -0.093273232996150715057 -0.095930630310917613945 -0.17572674079020053628 -0.080406413040428018069 -0.048511681632578775025 0.18207510387718495171 -0.16373432803817539183 0.0046268803790653588448 0.042215647386459567714 -0.036968109321098230335 0.013207019470652107962 -0.10842480384330181742 -0.18086884616426546213 0.01116368920068457754 -0.0096593507924647558499 -0.084455240471660558699 0.060893843461976585041 0.19119583362533051907 0.071290174843771744739 -0.17828916671742273126 -0.0680236409852657542 0.07575630824578619138 0.10363765162518775997 -0.25958374101405967682 0.096398276411162636679 -0.072604916048233464343 -0.0017478917958097771324 -0.078728917191085240335 -0.081441455446562727172 0.12356790765553503364 0.079656839277719659886 0.038076331801977489344 -0.094054774942524288495 0.01041357558835605962 -0.035481428557570048044 0.021173876889904019727 0.17935898508539288576;0.11794417103427473625 -0.0066638397688303062372 -0.0013463413164285092938 -0.058146361588678488475 -0.027233489170343679747 -0.10514085219494674617 0.16655617289694771288 0.31075507326768692096 0.114956643162326691 -0.10117991464700072657 0.0085112754273390586746 0.036405380790261288038 -0.057860716352189950351 -0.19483607314285047996 0.010750208436927199962 -0.18128771383371469761 -0.22208118599126103199 -0.1292292976807592475 0.4381399395951712239 0.082303822662184056291 0.12961632509363796295 0.069128425080511243794 0.1135678685502011509 0.040803258893766139459 -0.0036771683452314404134 -0.0033842994645465057646 -0.18952571161249762155 0.10316442311098611428 0.09535834830319050992 -0.049626467530444154375 0.12272236859875974846 -0.073880210520897049431 0.058559211105282567289 0.03553974611638632819 -0.011831511744461977592 -0.025030286633261938228 -0.19286144078113159894 0.29744961089060251158 -0.037857228397271701359 0.044071240349940671299 -0.0058497034660140133366 0.032388220528591471492 -0.14194488421214598861 0.10077459711265213116 0.087982410741749284 0.16589966212904316833 0.10254102818471814984 -0.11052719398169426335 0.0088945368164133967182 0.031108272805158623114 0.1303347605607846349 -0.18810419800979055749 0.022604798866334277485 -0.17313017838938354886 0.040263256532209364125 0.047364871806685526767 -0.029939864854513432296 0.021796241912760222492 0.10360910745468460137 0.12071328568103453782 0.016095345747998493491 0.019751748031691454544 0.23370751925394750437 0.06130716370397553544 -0.10857303661208336787 0.0080944568145367087886 0.11560711360223110966 0.003780437845773740313 -0.017858819871351502839 -0.067398481559122674911 0.23843080792133064527 0.19037411836558126854 -0.042427611853783603335 0.11289170453687158435 -0.1446821246307327391 0.15693109554624504187 -0.014517494259795602277 0.062579909609658548875 0.11765231368187457905 0.12655861215216293592 0.0082451298867841776863 0.088140978846248940748 0.028425227717218171097 0.031516831548155752052 -0.10455945596688724641 -0.0053407611165320542645 0.10128024993383975827 -0.017916937965945116396 -0.25769513793415005365 -0.18670279010644155737 0.069184915941151947649 -0.13504710491551716323 0.17526447728676564086 0.14765310889578878162 0.067778829471773563431 -0.12548166727826409739 0.0867224321791254249 -0.11094924108381554184 0.0024995574068678999557 0.038048573792994491716 0.12539780936393218891 0.0023548095348133596394 0.11923541425584406606 -0.21175472957544164143 0.06205956637320274305 -0.10507640150777516896 0.11525045321914699492 -0.035334387972675247724 -0.0066302182122594324754 0.12144787380643412567 0.016881209492324730781 0.027514674668669778651 -0.084944940852648948004 -0.14302048985182350127 -0.072545172016868858522 0.01867214902804661264 -0.13503227006204490679 -0.077916415467320782051 -0.094442460284980406238 0.18520485371685624365 0.10501722417241625418 0.056040219756948950192 0.21549877057243874146 0.16955061785799646623 0.015604115933549385364 -0.001483049250237841038 0.11441457926940812317 -0.021877694636662028266 0.035973340277893041395 0.1921736165736874502 -0.10896684685108223856 0.0083020676891180887613 -0.069119318550422845226 -0.18976360198477959518 0.092307087833941356414 0.12132223519458752714 0.13948584144988449007 -0.10345643736547389946 -0.18445160113773684252 0.11770929999913452846 0.029005592968211028893 -0.11462330561165361142 -0.012372918923970546018 0.092699800853447547611 0.15245338238186939561 0.012999573064983690682 0.018343812777897816613 0.19238481424290407307 0.080759914856144435213 -0.016592180593269022226 -0.11756121702060838563 -0.092562985320158719382 -0.20607511559663824197 -0.11088641118233198701 0.11542359142771048408 -0.00036467476062776796319 0.0067635686229581201689 0.041729574606466680875 0.045646518571283392629 0.075515702902188772128 0.079714826231576607629 0.088981501096230111725 0.13449894126114370074 -0.078604297885631044251 -0.23827459276874002336 0.17197232136619153287 -0.053025806804585379206 0.02365271101519074437 0.15949007832637737692 0.071305229207889619936 0.0081755744677400685877 0.0097398057240936936757 0.11830331332858534665 0.066914502827257138495 0.16812774211100889321 -0.048159758185419496157 -0.10729189557185100923 0.092524989284555131386 0.2111562627941809267 0.20817190231086712959 -0.054454452512333870184 -0.13202948192932026372 0.053371022992411892849 0.12423479789353103486 0.016119261265062752309 -0.19967745210094098307 -0.14641904104001984832 0.044170960238625413263 0.18841860560049569773 0.091852231222926142284 0.085633316180839955112 0.066696072444908577337 -0.026587050253091153162 0.066211965918768447836 -0.018211661545414963709 -0.10435064159219736846 0.1913792567787205301 0.075039188571917492254 -0.12053759298665778221 0.10915147155135263013 -0.021868444811637979819 0.089936820969101660683 0.14366924813120890425 0.077621916683771080558 0.068385725911037434366 -0.036087070378516730718 -0.045711599535494661095 -0.020564376114325988443 -0.11952009076406050481 0.13757068229778557367 -0.1812609799165942337 0.042548249535739254834 0.15638710857879850602 -0.082056095551008775835 0.0049606033655716919029 0.020956177330657278779 0.027261487896109756757 -0.050584688700382365867 -0.10663322968406230284 0.069270002843800956849 -0.17140088297486394397 -0.017390609155422565024 -0.014904086113195613023 0.12055709170948555875 -0.090005424810486081566 0.08059894809600567922 0.072792042366608786241 -0.21149134886149195678 -0.063437396793669872941 0.010327348635068754612 0.20439322183392427679 -0.011691873115396125143 -0.078037053687778246136 0.0041815311526616771864 -0.16739852502761928821 -0.097282789421560364462 0.072071038551286742413 0.13337066133035674342 -0.067796508287208706589 0.1085968599523037259;-0.11215034708451537826 -0.06875842762248361717 0.032566917967344843898 0.084991796100721439533 -0.058990582597000663923 -0.017011448851308823976 -0.14921014225718456925 0.0827593446576696673 0.0055943391411337681229 0.17904858154410541182 -0.050691135621957171542 0.10709351787334267514 0.046640795731975777383 -0.0048344675440056029958 0.21500874893499322127 -0.31454520740912639276 0.082894682495055618809 0.072021496136349630324 -0.0082245145385212228839 0.21246430183468786868 0.01597630142144440199 0.0031868560577123956901 0.24787548735743020201 -0.059720510280608610221 0.083598402824808765166 -0.098876418873607596627 0.074883749863101645161 0.066536326266333628565 0.070520893365570491707 0.0073245659234579280766 0.19397932984763002762 -0.10072039808929922344 -0.14336193885895148759 0.10457839225827025853 0.082643057684487597481 -0.081934424411723966175 -0.072629013607412543085 0.093963376737106515946 0.059830848364943872708 -0.02692878548844421932 -0.11223448022532050983 -0.13952702461830443492 0.089199833003221859484 0.1134142576453089496 -0.161022997708506449 -0.048460844774075251262 0.040455705211466769233 -0.020605920389490110095 -0.16051607610651219549 0.14131248749094704742 0.028436216856263355629 0.058784820953810032473 0.19359000500298123582 -0.059339450373420636609 -0.018562561682121947459 0.13599653667539235435 0.069712484662671173052 0.22849589267343972665 -0.12813593449272867031 -0.076756357103571259959 0.017974934106524627364 -0.04313731189362333962 0.10469563573738380202 -0.05361509816271090717 -0.030800546900050202598 0.047387924986016884132 0.15493279233196421973 -0.18583289427260463178 -0.17680995186975870248 0.01706935361895620118 -0.14433950924834193508 -0.019562394205584712759 0.079370449123916470002 0.011729840951032197496 0.23815423239562533153 0.1005575909592298367 -0.015441654621677076975 0.022242794139036119183 0.13106366020496104663 -0.12378041536442829784 -0.018198107856790983472 -0.26300406967420475457 0.21472505637987104876 0.044393949505113432241 -0.024911107940824198104 0.18350877665794532168 -0.062445703139944880311 -0.04555337805987505484 -0.050727704622259166267 -0.0077860555843343517979 -0.089592671524816050455 -0.10118480641865860992 0.063178601535296766145 -0.0046481908558860599023 -0.12821234532132891326 -0.098725281562363348398 0.03669739379304687299 0.033213136064296391869 -0.035863641261409798244 -0.17963222994626082407 0.077600853148891119071 0.11671361864158133481 -0.068651964933382603196 0.17234002356065736272 -0.047269153821496046053 -0.21512991347743751214 0.22134654821946103676 -0.11200251228046899377 0.030214192708234687001 -0.087989052783649657208 0.18580529195108208551 0.029698951682565255528 -0.051207987883186957545 -0.1933216771030629999 -0.029553753077348570572 -0.021822343670858564135 0.034581863100058347904 0.026192889436409162729 -0.21849527884581956827 -0.012628505176406068511 0.30633528370511237116 0.12271813993298683054 0.050240848891637816809 -0.024966945554734491786 -0.1524895337523238803 0.14127571047292156181 -0.20121987945400474085 -0.18906338564825408977 -0.11734260928506604071 0.053477097905187856441 0.093531036653357990662 -0.10229679019507265103 0.11850771259838602245 0.060929000627239909837 0.21909756582030384675 -0.10434238258414260669 -0.3380872899075432203 0.038218304109636051791 -0.12302658111075270853 0.095767593740100340205 0.07301950781096218368 -0.05119739365616154253 0.058966362623092266615 0.078836738719210264215 -0.26105851343350550131 0.049813724778096403478 -0.17162049205966728449 -0.0052736945777503534127 -0.077661601764530005521 0.040552356005516973503 0.12144990331149332907 0.013944614630704055963 0.015436133443229943518 0.050251861956497959061 -0.084511004663624628153 -0.019369344438818603127 -0.0034126221633608705419 -0.051578151794954146814 -0.15792816863048353415 0.017946972011906054539 0.21018417797405147818 0.13880811056264213965 0.062191720693392946173 0.18767323397665136575 0.047967645125119487415 -0.15905208185917563135 0.0079402234783580438737 -0.17620941220906141678 0.11083443773755262407 -0.025947876969695089777 0.044912963355736426618 0.081828133747135989307 -0.14386657885609513419 -0.044741304594983620502 -0.021651525095013952893 0.085781546075088574432 -0.092256213023233918369 0.032179400983721517804 0.13216577578922727998 0.043053659438003544224 0.018591065540774383974 -0.029861691286169552567 -0.063801041989042239777 0.091589275331949424053 -0.0076499162438533087338 0.091199395067949468041 -0.059625924484630457578 0.072336439914784736449 0.13385108699712799929 0.066410070736879781017 -0.24654012588243556792 -0.29176437487685780159 0.17922782595741640344 -0.046497275696847480131 0.04783756156892823852 -0.056065760462068500725 0.17198368518481221834 0.020856811175786655471 -0.082455799249529337924 0.025770363407636349279 -0.13983285948369636453 -0.021123359451899179073 -0.24117149274706478623 0.018782848973929358594 -0.28616251664615144357 -0.043301259443666584303 0.0084792121749868529929 -0.10810163167216142732 0.15543669767467666043 -0.14270948671419472764 0.034474443076799421437 0.10306716887404100691 0.027869838429993139262 -0.040148677257169154697 0.057434870616962424572 -0.10197866799037279273 -0.019942133488963009746 -0.087503069942734129638 -0.028328078348202841152 -0.21645718278934172885 -0.020181846313204916676 0.1309535403194577452 -0.12885204818098761059 0.043047949792873657637 -0.087326535644114910983 -0.092369910790894405039 -0.24593190378638962734 0.14636009613948569585 0.0031100882655274511568 -0.088263574242934655922 0.057031265700648085815 -0.12852726651797255486 -0.10394458353174654275 0.049188511134010362569 -0.054733677473178456163 -0.078574438712746552671 0.037677932300536273735 0.055635361265502225603 0.021609845787133534489 -0.12069430656502466714;-0.035902353605160655659 0.05236109865856729273 -0.30162862194689316064 -0.0024269288043666480126 0.12748778803296612061 -0.041965342351644403796 -0.20957456901686272177 0.006322828134570537828 0.14173309279562340546 0.043853605124612449195 -0.016562420319394172141 -0.014499782099848798622 0.12707424509316939121 -0.15966719903442533335 -0.11535541368541898932 -0.12487504290947210039 0.046468074830706328215 0.17330401398757688813 0.092143500399694239222 0.11954233680070669443 0.19803227198741257808 -0.049723608367001501107 0.13076558237512952987 0.16940183477800133116 -0.05328444257372826065 -0.16381899414875644716 -0.047434648051345312814 -0.040574400224331681752 0.11277059906926281685 -0.0076005712587140835529 -0.005149036892397157103 -0.22530497607875696331 -0.29171108235380666107 0.058828333477888301861 -0.12319849196905742483 0.011910061455174231204 -0.035356462135088591314 -0.13496482650131783054 -0.10483871002444444809 -0.053585261248054710803 -0.079559930087654009978 -0.030680046730302334979 -0.10156877638302223843 -0.15818089427957465753 -0.09819776699938079223 -0.054083424086234462014 0.15114849421628887005 -0.0038042769584766909091 0.050274875113744905974 0.12703761936005297795 -0.080407718108964659764 0.058934601869141144126 0.037187319857868730844 -0.2620069356504617919 0.086353010749390626821 0.073035793530142029129 0.034348633540146486509 -0.10710826535802439596 0.079285660143641439879 -0.077260814294440871564 0.058189884915570651291 0.032839165769652414739 0.13840334831541750704 -0.0088034949450794264258 -0.087704034567407815337 0.065704931139540651008 0.035223810736630889462 -0.105161474295724644 0.17609703185671321535 -0.057585331570572405313 -0.19788277087188349546 -0.02198335803790329307 0.10921754329945250472 0.082529578803963499212 -0.048989276433877446126 0.093936903430378304591 0.056089220327371923369 0.28494954942003802856 0.12326119548177374985 -0.028212617213860924359 0.0061621087229672411034 0.071702524592652971958 0.15971514734759084675 0.12117705650522195282 -0.072415652035532615538 0.064550855296133066719 -0.0083094503559492816774 0.16146221375887206961 0.02995617435084571567 -0.032583814018652498823 0.26424085725903534438 -0.15328164881854025592 0.10491044715831199241 0.067606298509225976057 -0.17364692379611096351 -0.049958332429247270801 0.016969448447779172939 -0.13933124438719651783 -0.055687729394989879395 0.0015330288381550111892 0.1475578449543612225 0.087138218396388786302 -0.089538616557465658397 0.0054505168329317330023 -0.10575995778716439089 -0.12050793597186423844 -0.11544722889737836502 -0.058940452224365183498 0.045470098281779697258 -0.20950854424781292784 0.049575168012489366498 0.14730509528428345489 0.012230682384581199884 0.053998816656773376832 -0.077908612842053123759 0.12941780202912098185 -0.1628855076115247047 0.11157155104974347815 -0.067700983083972113286 0.0381677460215944786 0.0036039785823692525174 -0.039160703915446959389 0.26247014376795235746 0.021043007791811133012 -0.00094541480499010788208 -0.078541377136506523859 -0.066438145597449579927 0.064763772614555889517 -0.22019412212261951778 0.082611230875436550414 -0.053665924186280841712 0.22700844344153267573 0.11695774435185418705 0.087902232951333952871 -0.15573672641674402017 -0.0022231109955258357425 0.053170261600810515834 -0.043173854700886443725 0.016613960372474562144 0.087250608872215848488 0.017094541405263230516 -0.13575358101878426398 -0.23112957296124497786 -0.1269899443027455721 -0.078148690180308302833 0.26963275928476582166 -0.013096905515329063108 0.015942619426863518378 0.070563729513499762191 0.049192152887815608631 -0.0028619736740098308814 0.34459450447158579411 0.016070365346314403887 0.092330092103102084922 -0.013158092585068184577 0.17392556493002486739 -0.1060588294778929408 0.12630969679746376078 -0.14822830811934833983 0.027487266744768808907 -0.056479689157379837916 0.04754592296002209395 -0.13283075860062520945 0.048619863605018770469 -0.033841922264188695202 -0.10366793161524276434 -0.13605213588576142714 -0.054847380205159938782 -0.17475540102518596908 0.18123062287057215003 0.008581793831457552868 0.19222104481154694833 -0.0029241153065299244074 -0.097348289887141364884 0.017045024295802138625 -0.11359823628994868139 -0.0809120575522508656 -0.15992358211388796319 0.14536371308323151053 -0.067950140260094382683 -0.014247250161729403672 0.003318256509774923993 0.048844724507241345235 -0.016160752382461535115 0.035390420999978119965 -0.013699252905792581869 0.1139252286749778964 0.055717208679130048044 0.032620015779858360649 -0.024777243236800181037 0.087153194153814034228 -0.040378940947874267242 0.20831442012470480218 -0.037479829973876367666 0.033576330208583665682 -0.15560117498830380867 0.058893423185014233401 0.073420752883479059592 -0.074317947199662309776 -0.25372740114815162116 0.23023265531026149144 -0.2027142691161268051 -0.026766931507196597972 0.016294173371540678769 -0.22934644532531084371 -0.058118358223201709023 -0.029410980451500715049 0.12002149492819122467 0.14547242911719288072 0.0014004968687582886044 0.05343604298309963252 0.10638025927727252917 -0.13328783940457067381 -0.10705804153425255154 -0.15117538858568416171 0.1058931989154814346 -0.095003936760514773319 0.20896408945178354677 0.087655876992595291308 0.19745991814754051963 -0.0272899607531224761 0.082481568564907625785 -0.25437403617775072862 0.02603227342109521586 0.24004938371584799706 0.04415904949795883272 0.035987052818303152946 0.20789503739133285976 0.056800786270972764003 0.15828547834873399336 0.12647432183788387405 -0.043925110800986481852 -0.10947289167126726672 -0.069230195018330401013 -0.22708713169861763359 0.031463966329767376062 0.0066142110983372567889 0.032128263277024685096 -0.013854734782468385718 0.074715242540416323958;0.046349576335022207862 -0.0041314673385725256965 0.1794582577927908984 -0.038238015021414301087 -0.027054166082768806717 -0.09999062037474618081 -0.081881199540384599911 -0.073709636480552731541 -0.1690268465172773682 0.15842751552688927319 -0.050654482735288691719 -0.17559233199331636399 0.0024003869474711198029 -0.093633424392567152217 0.19116705192890309783 -0.086140576205030253143 -0.0032491457005210250264 0.024276850640217478849 -0.081549753022325893737 0.036436259463697023842 -0.0030819083143206471576 0.1423966175250717392 0.049181429926859213109 0.052059113754108925221 0.029193141660936693105 0.12758045453297620075 -0.020810041018113435707 0.11115838172606609668 0.012457333513204457351 -0.037425645951599827155 -0.092902176096949437567 -0.08873375972394001443 0.050599283333673084062 -0.0306712166579968179 0.087813589792528859435 0.060801783449738841525 -0.172448959153791187 -0.094625207046783912923 -0.019352668899267518043 -0.12119540752656707272 0.073195621088001025512 -0.13859028321542191109 0.13833826093418435943 -0.10425561446522497999 -0.11314413429922402787 -0.22918376424349778953 -0.11896115613346067152 -0.022768001094784072469 -0.082620083285817019769 0.070269547153718678323 -0.072936642595538642153 0.071232346809885466188 -0.12413045255247599774 0.16147767811176000352 -0.066021091969963210944 0.056716688936861561765 0.090017356753605934361 -0.01693788729946588828 0.083015542577465351037 -0.018983327832942469698 -0.057406165081140422823 0.15779421345767577489 -0.014882434620978398851 0.0083827985342252372969 -0.014084308221256648663 -0.140786967243356681 0.037901241898321461066 -0.1640351381571297229 0.033660742091066120363 0.042137791067053675942 -0.074806381179992470498 0.042251194625828165929 -0.10360644739319672947 -0.03553846665095576618 -0.24743506920567745477 0.095040544899850559757 -0.097087895395576162549 0.029588545504709424377 -0.022906954439568298632 -0.0452843919891678659 -0.15045713347563188789 0.025425498300705708099 0.025656484034055564158 0.060434933764778715759 0.078190034314424505801 0.15076047070073345102 -0.06945450234545151591 0.20009375548208047091 0.037058490493214607531 -0.026482685903938166239 -0.016682216968143981362 -0.12050257242082927644 -0.20525758532431873093 0.041545035304396141229 -0.13224850317012482037 0.060160555839652657406 -0.10462656232472616891 0.015510212523281996511 -0.22116120381357248781 -0.18717061845600502235 -0.058277853052608394324 -0.16277013619115829335 0.17331916832203714263 0.0050429692312864357606 -0.15074244335389233584 -0.036602892822602546563 0.014139740337316783481 -0.16916538499489497394 0.026498823745176720151 0.040818327514105329223 0.028421504483398137703 -0.1051771815962559975 0.070212728729084364354 -0.0084394711196497627925 -0.01603590607441145871 0.16705804665275070242 0.15459250757683229427 -0.13185056378495055296 -0.14065407181662983871 0.043158355314433155536 0.14892647640489309335 -0.015469001273018638531 0.074509372106738191999 0.00046657028681161213934 -0.050296638368591571611 0.049906726931250131041 -0.064133918002595435848 0.090400480198971983059 0.044458418453981449203 -0.13191867189692180196 0.070391175303867584145 -0.099456983218522324042 0.088912442767634825014 0.10382593135951309615 0.084377594257749072293 -0.10710822102681477608 -0.090832870711132329689 -0.061682791137582973495 -0.12078031398610994396 0.10530348066491937442 0.014079187760413516828 0.12503486726117199468 -0.034648837875385959939 -0.0053781823029122807767 0.24929121475855142709 -0.077087521120492302762 -0.024459165757170081568 0.14042036131201857119 -0.066788251905553680521 -0.085002758356620897184 0.09239361774978065156 -0.047846211006713386393 -0.010826048346332080644 0.088166710533439371367 -0.05706556130114728842 0.0016682811208486580945 -0.060426905050758678017 0.019728385904265156869 0.095314671314905369259 -0.079880095317467314509 -0.049727801817622541147 0.18836985175489892597 0.014013956065133399698 0.033805468501048992203 0.14455300289672828873 -0.030535636290006482052 0.12073771246887468611 -0.029525050753546132343 0.081885261452322596898 -0.028844950742755517958 0.14779095344513606958 -0.080301831032699069746 -0.21119121919100464213 0.067831833228485238774 -0.010736382541506311189 -0.071365323487022278015 -0.13185224916626456237 0.014463729421140249232 -0.028057915271212610642 0.1249960830176539972 -0.097099183833926516751 -0.01447578908378559584 -0.13927510206010174088 -0.017731467893029276284 -0.068464005876784625459 0.049163536941819213633 0.15727320665082714091 -0.059525476782728702074 -0.022989624141201356333 0.15115183516304714351 0.10518290776135297282 0.00030133542081061531759 0.083038305343580476325 0.083988562396531851739 0.037463035799449970198 0.072152806376582723225 0.085301415047929082802 -0.23392497293312861095 0.10219816651284276132 -0.18896869236438437745 -0.060285527700422711361 0.05581554768920508891 -0.14959171551868630234 0.15739453728338814731 -0.10624540709545640671 -0.086532369505598699666 -0.22434667536330690774 -0.058125626198677782241 0.090809910802558208021 -0.057215975066443158781 0.028352615408710105105 0.055293658561928367423 -0.0075485002053050226367 0.1492595801977113501 0.028885563358162249376 0.013365464605848531576 0.033283299399049171008 -0.088782982226195572562 0.027222729719976444113 -0.16277394429760283501 -0.087355643918499370493 0.11427076027279303716 0.023434312117245226226 -0.16676699858652707653 0.072475481234288721688 0.0094466568175166840127 -0.078720312312218945761 0.20438297801347041216 -0.015731179632023480075 -0.064771301356658150805 0.043640097702988087103 -0.06886232272628209361 0.015483683992471526658 -0.028687030352773125463 -0.026676335294472046378 0.017510959378321297453 0.022493283528838295404 -0.0837847378826011846 0.0061623142297433930459 -0.0057362543859451452927;-0.02902910420956624632 -0.25527619984507760043 -0.092281940858154443141 -0.027782972911895131851 0.089984325158299710568 -0.26572415176733843456 0.18845349873268146812 -0.041205868435628567603 -0.11194098847639172289 0.27626096172229097636 -0.18481109430843656316 0.15436423578517624589 -0.024671879573638765687 0.059587888077811596022 -0.27330778105151776192 0.099466228619528820887 0.27418095560820432421 0.037758310355955823634 -0.14756834905747232001 0.092814775660498977095 -0.029339268012928645946 0.019968223904940657354 -0.19123844967995706767 -0.043380828223453904435 0.04004217419257855709 -0.12497065499152804069 0.010656122384712897466 0.048284135961683072313 -0.068259399828764180662 0.025895754044086189555 0.041839703102644947019 -0.046732889862587438656 0.043313269358066688874 -0.064050643408600532736 0.24474954386143632501 -0.03040242241332122286 -0.10327585603928630953 0.28155351327452676768 0.031995234426222610158 -0.025298761944878501301 0.14838080312677848216 -0.20387914952631672194 0.16761455093983021469 -0.00043639648910212894273 0.060793752693546920796 -0.054450360237622265347 0.15338855760859093635 -0.030065927259231871316 -0.033280861552884143106 -0.019318409708071214437 -0.068543991865296263755 -0.012881137528550110766 0.15594256692357844063 -0.072338194889598778081 -0.058254649988892973078 -0.020423612338484692375 0.052044223208581034956 0.17917886078167194475 0.021917622447046380268 0.0024369489654295153902 0.068264915594254377273 0.038072852320692414374 0.076541883700342414065 -0.15629332452260905062 0.010741299248932870136 0.093767552020989380912 0.087947193133618137284 0.16022352527250730003 -0.2264700945734962334 0.097447650599467403043 -0.043985607416177560647 -0.048663491260192121013 -0.08861699898063339631 -0.023830177750914581514 0.061133349069922612862 -0.036556939210887345881 -0.096425039837232412454 -0.10893987486900941208 0.30524529793747268158 -0.40808613996255443945 0.044438155671683784997 -0.38203725182505315905 -0.035485709565193028492 -0.11509508906554419272 -0.14364994162721150817 -0.085574002497129333933 0.19759412233355391764 0.082133038009930992018 -0.12082056031930189788 0.1706699464032862823 -0.17138964113081783802 -0.079181696110598734362 -0.14302798149345946621 0.11474837416720393146 -0.17237069482670128173 -0.0024355850817671456654 0.34680063277625444718 -0.21082463861790118331 -0.030896825858724191738 -0.22493672732375880052 0.14215180365464383239 -0.11844633049835989747 -0.21372330698144792471 -0.016017960720340659875 -0.15310393148007300779 -0.23893695461756478404 0.032417620392800168549 -0.16485958932320882164 0.063922653186775327261 -0.32957001475101133092 0.024904092380470973372 0.12106649538171143643 -0.091811724602102573467 0.008557248484292283297 0.034313839679083635303 0.014687800570374456854 0.01390776424279729917 -0.21372178128892352356 0.070005975710014475832 0.077705793163247494082 0.028838641911474265783 -0.027054328578515030035 -0.078423937838557764013 0.075967103564402782556 0.19991977943655575567 0.092003078760006823389 -0.18256701051890153464 -0.08910174104590723454 0.12447630629529926605 0.2166788183775095189 0.16410046027909375166 0.10977832973889134482 0.019736167524349736146 0.034861894705558039986 0.10401697669756015951 -0.056403277440931473552 -0.012476959049063866825 0.10563239901463912507 -0.031334225521587093233 0.13140072155862497771 0.085475820016874176632 -0.042358445393337669505 -0.026949102572161227204 0.23508542198598092465 0.04385703979017254589 0.033540631623830405306 0.029598784048013443426 -0.26416552116267777439 0.078131650993048473719 0.04120253190447908942 -0.022163298307667049503 0.18440601978324724919 0.083581833767433985627 -0.18933083384777743552 -0.079606884738784661204 -0.14349931254238784684 0.10856955901819542731 0.044573713190652883287 -0.038561264927863665719 -0.10151727055725154325 0.063588478992325239703 -0.041719146064488177306 -0.22398777234194960917 0.14812556524332468055 0.028908561132353099987 -0.18871731125242652283 -0.15314660269506591428 -0.025518361605263398251 0.0096091119271099565552 -0.062417500180009674593 -0.12330574967213867033 0.15176619254050083274 -0.034340333512451623466 0.1213732393406736082 -0.14138869765514494592 0.11551138243918984694 -0.041091829954366020095 -0.046752082866488416102 -0.09745716302768692163 -0.17985574360141579064 0.1730909482091303464 -0.0059875653455875275932 0.023939490997599458671 0.027598945903892446729 0.10873914993412824026 0.22766486541156297219 -0.096490796798255465405 0.190834605785886402 0.26927676283654922162 -0.15395183712373639029 0.18961781875444430612 -0.026040470898939179628 -0.11773552736482481573 -0.048420579219870918397 -0.082167978178210837603 -0.13161016154240953724 0.023289876166306296146 0.06738673214743742812 0.072382774761167723021 0.086288381222116905533 -0.14442669086998827233 -0.12208687599356672637 -0.088053208294448070959 0.0032717868982491361482 -0.060851490127920085382 -0.0052010682948752315347 0.023713668006984919834 -0.027162603328564776523 0.19870274651992098081 -0.021540297554720685969 -0.0023303879091130380585 -0.056617810134272236744 0.0096526422559416371477 -0.18118352919105057408 -0.13307887535917201083 -0.022774960576943985985 0.073671859684138640834 0.12000658654013163229 0.0088045861680758463058 -0.10482124469357739782 -0.044507992834428057594 0.12800358243868645292 -0.15507774196507700948 0.026694318528621131109 0.062036308799962150418 0.0032188991371557111598 -0.074530813142106855373 0.09941478868612241282 0.15898959225534406436 0.0099277205288597278332 0.0096848382182475219182 0.18711689685643406733 -0.011190390132824379679 -0.092027821871472265114 -0.12617025030664624774 0.072638816114220336462 0.25155518841877949621 -0.075076326517855826448 -0.1113199757336017226 0.18801995308505414783;-0.082448608898440550741 0.10019285857893717173 -0.12999763751452733662 0.13059755716161150496 -0.066703369866207978811 0.072858186483138215328 -0.028161688851631686004 -0.10253279893418143498 -0.26599220815049495759 0.27965846128125376735 -0.23706366099192605068 -0.36875986680110633964 -0.058822824521921175667 -0.065520603610252123317 0.065408824583890287641 -0.036177722943332185634 -0.089046725040924798455 -0.020505239708998347636 -0.14343491955412876471 -0.24424562905385355238 0.1146480652083064905 -0.0078413017657181366404 -0.029822320895219286974 -0.087117489047440960226 -0.11250651886597966278 0.17205759590890337685 0.20735892520395332594 -0.071748210655891403453 -0.0012314584754616157702 -0.0038853845600448043418 -0.015404036963978410407 -0.15521410488794035176 -0.3042071202190928525 0.013107782489489731848 0.02876287606761070148 0.065188037050582237075 -0.10090812652234867897 0.15544533606880928112 -0.17883460689783961528 0.10494362646380647752 0.0074178618295212481182 -0.016242395643425777685 -0.23075234888118378862 0.01117982830029547181 -0.11134649929528370182 0.073087860966062428991 0.087815353783636432294 -0.029896292193854978603 0.063719244772233646357 0.014112273632837107201 -0.096496212813288295695 0.020177328843183642282 0.09823518469304788614 0.060965448680460387898 -0.1360282549072258651 0.047076916457902621971 -0.13730254577593256626 0.029711908042984576384 -0.023378023683483954709 0.04408274693904583319 -0.0082798242958309342665 -0.087540234668347038927 -0.17608232706537563228 0.0077555142056674004555 0.016686733649821788861 -0.12896027752743532968 -0.022814462536847168045 -0.017210679313219505449 0.00080290002838097340732 -0.094369355019762235504 0.25608440522677361484 0.029884762106211999744 -0.063129699372042255567 0.081986818931482005612 -0.069505221781621689958 -0.27552741636335803532 0.22790713424035591306 -0.0489305341341632824 -0.055292937670590215637 -0.10043096308326185384 0.18763710288885393496 0.15100299977309689092 0.095365497567920287647 0.044898946064018757651 -0.0061163472678795460791 -0.2176870033172861596 0.090596914680814322196 -0.043729887906243949947 -0.091584386731790395908 -0.1482681560845207358 0.099427108113408685375 0.12282773939480853831 -0.0397064786774019296 -0.044529043854666244817 0.12807333278328600357 0.083357876700162369943 0.20538009851932140237 0.009247371523150993769 0.040814309437894699673 -0.055785890951924217707 0.10680560569214778144 -0.029126051270140083937 0.10884537349715403542 0.048953112822501053392 0.055536235150065692279 -0.20316556047250727834 -0.038266429966682488639 -0.003178486690696039757 -0.17931518460576811869 0.059489760992810808427 -0.24036424861695346311 -0.075230705933316766032 -0.2423654902134362854 0.22826739383501054581 -0.10696730167696003044 -0.021686855651343824036 0.13573993773012157926 -0.33834722141145212593 -0.10075063237536505123 0.034058988753620920986 -0.032090181223589739345 -0.018603627053950501369 0.045421757021379696728 -0.16023568045529745785 0.22475926699023918154 -0.00030764451406208861636 -0.0076938731191604032775 0.058151725735257064898 0.16749773358812486412 -0.26316196159508536967 0.0056682529958905457368 0.1080347194778495945 -0.118294771080606681 0.21546723954694058101 0.025600353102519443627 0.015458725662262234185 0.017745915581733488764 0.048656091187312754121 -0.0084817825544456840192 0.018599271418758688001 -0.13630963022547987196 0.036344696753889960128 -0.049045504007047047157 -0.055244329596854616082 0.094058573463835795647 -0.12222107404596890823 -0.039933089570569249571 -0.069403265143589631947 -0.042003551538826601475 -0.2635934961692295575 -0.16012543151149763454 -0.024525007830962723687 -0.023096387133043298073 -0.17568482713171076903 0.14113697306108746732 -0.057478276447824348805 -0.21142104304579326102 -0.0036453178681404574402 -0.10200035758508646522 -0.00011253878556476831774 -0.21617750210604128047 0.017001890571651918915 -0.33658929567802448046 0.084803341726320924376 -0.15700205649960172205 0.14350073721957179451 0.16797591136749939755 -0.06685354709116254901 0.096806406214517207176 0.039556358413296320575 -0.096202025676790453579 0.013127242751452558936 0.042347184954618463659 0.029018026802361693295 -0.029756782601988648884 0.072732036946501488206 -0.04134110282459205199 0.11275007521089601414 -0.018231350710648262792 -0.09581349029111599358 -0.077009274562765822614 -0.046374869570590213086 0.048010685661964369597 -0.052299206970907834158 0.062220984830728950921 0.10226131286244460883 0.11350486518460728425 0.18789743979873421709 -0.12530271656963701266 -0.0094001580069265136541 -0.036431099815859985247 -0.019907148315331663069 -0.066664765725451602396 -0.16659403487498600227 -0.12099481688003874136 0.15887510146434805081 -0.084904315517016187842 0.015723310011088183213 0.15327372074380019029 0.1134312476174126616 0.02051848213967357587 -0.1106750355030193117 0.041860409608584697727 0.11804478355578368332 0.050929100005816921315 -0.024258439706779249406 -0.03052279033294375693 0.1195416955163181999 0.091840343662003637304 -0.035614190179467701547 0.0048819494869224364098 -0.19942647016983311437 -0.16608868840493773433 -0.037125309695552888289 -0.18460696286774685992 -0.080389103551850110696 0.10639976251907719285 0.05435116233256504642 -0.076575900191654361349 0.15351983209667743879 0.11776253025173280542 0.067461764954879641087 -0.021727977311283321049 0.11986742339521275214 0.083786496564510773433 0.10644711515210102115 0.084928044744250086318 0.11194485599189171743 -0.28906571824966575956 0.17495593074183765636 -0.020481194198007150048 -0.033567419550251914595 0.16845029829123162046 -0.29456908641537654647 0.064653896080853312522 0.0071604963620446882011 -0.10934693330554035029 0.012232166064219535118 0.1816921482982090108 0.077489871194705017832;-0.092791008411838474257 0.044787330035183633981 -0.167024367326165879 0.020441080907461862959 -0.20384418193965014865 -0.016642537641338710219 -0.1913107381673645746 0.064102788960225517978 -0.18388937845775510382 0.098748440474563423108 0.12304895076118775588 -0.19596805737873956854 0.070106199148257955511 -0.17527207578686515577 0.14800513102540779897 -0.26445990235133964852 -0.082682000656532014804 -0.052243615804693187277 -0.05648755858757126963 -0.060778141160051812886 0.20920183322592411646 -0.070106113730130342754 0.18523646130364077034 -0.10836420675753732912 0.030877767251794415587 -0.047729179235145864635 0.092215012911143909302 -0.05762989242771852233 0.020484170441673450747 -0.020696527073653187001 -0.054368393596084134411 -0.00072708327906809058078 -0.076846254460089746807 0.029195159343302842792 -0.19601632179494107855 0.090668052208162430716 -0.012506450438188992588 0.12192977062042043013 -0.12933817093162011669 0.05118919758701532402 0.0041998725546511517237 0.11011606662279888047 -0.14393669651027293788 0.29439036826314285422 0.035944833388016537989 0.018298089058791707634 0.057778051485637138551 0.098713631320970399163 -0.016845572662253838203 0.05989569880897392673 -0.018339307216145857293 0.1725718693122012537 0.1573442101387876324 -0.043333655611478727465 0.17441597761736588046 0.1320281680462692675 -0.062489401862912255514 7.9488450448243763713e-05 -0.18496254658072969201 0.26406194445862518627 0.0061262897357466650217 -0.014002816093152601479 -0.13501586033453949476 0.13490077802959693498 -0.017848057586591522389 0.11615016269353446721 0.0029648145958045060699 -0.16647148887958396202 0.21396059105956008461 0.030426335189961559169 -0.017645493283317107563 0.026298364809324729918 0.18001596014680820712 -0.11628637246819686912 -0.04282223301300272511 0.017500056204706508634 -0.03195078099440184366 0.13281484244714919507 -0.21935556765524150125 0.11622853673645366923 -0.14944182348195320098 -0.13019411408716569101 0.071529861289765767074 0.11194070816875577312 -0.088274086844975646615 -0.16217908987008561317 -0.16108347593518823615 -0.056996937254614105095 -0.031463605513062944952 0.16015866864805841652 -0.012285513976793699387 0.054262536740354666565 -0.082921195072532413728 -0.024631710867565475426 0.0242960780430800799 -0.25625940167828925587 0.14690619686065958804 0.065144836697269822845 0.0064949922240965449194 -0.035836217971078762612 0.15023674899239794489 0.040342817851954662633 0.19770647660559048653 0.015048115158680507031 0.050854050259814514989 -0.31241381675473656188 -0.039253901727180996739 -0.050152750785438661441 -0.015786431326885522197 -0.15845617392650229727 0.20115733957147907685 -0.19755536120479078033 -0.11774330907322866357 0.012035935013322646148 0.16826528401420956516 0.0042460565412738779378 -0.093878632918555360298 0.018640346212749576982 -0.023828192950823081503 -0.071087746448676533695 -0.10247092292164403093 0.3520793651345049402 -0.10458755673698161281 0.19413516440409983588 -0.072689132010638174419 0.022240775653498173065 -0.091569445609966271249 0.023611906992938871963 0.0030068907596543723026 0.077209539146034983359 0.030123451972056292103 -0.052551664453901983376 0.10883062508207475005 0.086843231232781009643 -0.11414963308490568006 0.0068946637360216712215 0.10849398359520033563 -0.22733158889471616337 0.18254889738820323508 -0.046012839479749066685 0.2505868430051549911 0.064316372132936741601 -0.1716801076967952866 0.10287841197701756701 0.13305285024891860823 0.13025944157496718856 0.093026459241482756246 0.18911378216872301583 -0.059117231784046819776 0.032591531357088816823 -0.13385471584111166554 0.15563495984249983706 0.38443863778353892791 -0.080323131348062265511 0.052137334873850124661 -0.1446898576040957507 -0.03177777398777265061 -0.15324377681567052933 -0.083989556138382145956 0.067659800357102478641 -0.011935503340187251717 0.032721986539623222623 -0.12328223862807957678 -0.0026661403709862460665 0.050287340792154744396 0.047325471102687283187 0.0096249479993016154311 -0.22623933746470942241 -0.092503362792012794324 -0.06656412775347068933 -0.0049824067280925844747 0.071611926754388544047 -0.087285998536972636552 0.027543595762176291408 0.1218382682089547836 -0.034863141837792571698 -0.12168031395493367208 -0.016948590940107526037 -0.0020994046967311094654 0.015694719544076370099 0.061746717064179862389 0.06836215789130851983 -0.089815332381692092323 -0.026120184174483807027 0.059326029149529224682 0.090143282492657017535 -0.071449251885635362003 0.057881674640067798387 0.31304922904160065178 0.1298083656603224445 -0.0034688258122733180849 -0.1686467651892050168 0.011118857790467184116 -0.16418190314999056567 -0.043268742380350014298 0.0034601707827336958267 0.01606846865593127005 0.066461485891572108509 0.14677003017623041492 0.076741995285449837727 0.13797100249637128666 -0.011410517919892016955 -0.081817924266948227618 0.0015558037722255904645 -0.080477758366289134373 -0.16510751429586570382 0.17095995375157468921 0.10363714403176088608 0.1339517277623240854 -0.0031396567309413207086 -0.086660285413941412491 -0.036708502802279704968 -0.012922259248277612187 -0.13613055472225160658 -0.012007763850934285998 -0.018453541959323402355 -0.074614921557197844137 -0.080564417236452565141 -0.1497592184212791222 0.12181373395857429676 0.057349567184506136663 -0.1051106280698942963 -0.070304729113716907252 -0.050419286501873696038 0.15960265476803722762 -0.27005560707279141486 0.021408945892642843728 0.095135963585078558991 -0.040116008103014431929 -0.064049643104227158008 -0.039139913232557235756 0.011028628876732560204 0.33109298497125427829 0.041826435534424541429 0.15480237698975704563 0.15704768539913294134 0.033068442549670812314 -0.098005440222944245621 -0.24800026853382578507 0.04678331291430816441];
IW1_2 = [0.29040949760761103349 -0.079152778911692533992 -0.30375551362980746095 -0.30877629999462996579 -0.10649160842015860384 0.018623097278851162562 -0.16615470345929617135 -0.061007212520810628897 0.05154335179531258776 0.044978739859698586845 0.19480560878890681997 0.065948566977190148375 0.076502116579204637592 -0.0045670194425928394011 -0.061515852948301572023 0.026462054535593238641 -0.1134659293993327267 -0.03544556205741537791 -0.0079978670276939292649 0.019002442228752355197 -0.040883243838037180984 -0.054223977270925066696 0.18106498240694537949 0.018338337036526215773 -0.10393992258116152572 0.0089296731370406209893 0.042354709605156047603 0.030119305109484489913 0.079664583669078581352 0.034477740085413752236 0.13933272290559770012 0.10881068896420731384 0.086263138437643521739 0.14159467640871439831 0.042279200395527377632 0.085933224858582374361 0.035705702448091694579 -0.068395461790617062547 0.084315075936398642398 0.057465070021086944729 0.061172533682774171693 -0.10758838424540377587 -0.011442225920843956954 0.073732724711108948989 -0.12556181188772796986;0.0041936179616501988859 0.57314120135730228789 0.54170053869102818833 -0.0048645235415054541295 -0.2249994926477583701 -0.24854113846651065822 -0.18563501817943622862 -0.023275951885951731701 0.068788652232307040402 0.17645456333506814861 -0.18548034860392076384 -0.11120233192089701291 -0.058544729049952268229 0.094773798403149006608 0.076139752384432560217 -0.15257101576838916213 0.2671157934828813918 0.042927790541695626247 0.078862754936020906804 -0.094092952053870818063 -0.034041358423229597929 -0.01408824923606546986 -0.17411347195520959774 -0.1387516913098702509 0.038464852162305072925 0.059906872992986921755 0.10439807211282058075 -0.057590006837140800267 0.11317489399248567561 0.12707304474500830116 -0.13054398234459563266 0.044139594287367786563 0.15073724481091982375 0.012135897281453447011 -0.15157181026715377259 -0.14337544336386717769 0.24075902437038662618 0.16871093840470538505 0.033582673433201724877 -0.032980597671560016315 -0.089773539349350270355 0.091381898148656562353 -0.080092899476460671648 -0.021393187288937846879 -0.10054458449148365173;0.16735934368315061316 -0.25557237438062296864 0.14290969425723282216 -0.12083574044291525706 0.20118753875035680356 0.17769280075892712745 -0.070908600279020073121 0.067833900222805734725 -0.029519892776802399148 0.11647329908558390343 0.24864535350072797248 -0.24503866389983111618 0.066044622396345800674 -0.14400231821598827309 -0.24135481423433768899 0.04088411341247208397 -0.20239856239969311602 0.20240277292473604631 -0.14657105555613816894 0.081872944809193520799 -0.017835463404927656694 0.078909520124229082239 0.080661959223315551903 0.11132080751887105108 0.088148844679779916889 0.26252264369283578871 0.12273402165408625608 -0.0079586361056458825025 0.15003733332142910051 -0.15991610129523345374 0.042348810981645709783 -0.31413799095547656481 -0.16960867053119454972 -0.0076103164929154955287 0.01321855951810586155 0.14626287935265505635 -0.10713415953314296691 0.31559961393997537638 0.18489191430464510524 0.11874872675417112722 0.077669115483227801899 -0.098909451469204670571 -0.095851374384565146691 -0.01239290350226196491 -0.094995179850845892777;-0.2447264585619476629 0.053589857786276687279 -0.11050249380914345387 0.37618687569926040348 -0.31310611988418085572 0.1945044543277357485 -0.23962478123253633244 0.090880724489879119443 -0.13476218475654871964 -0.068454953334413898292 -0.031543878207307418648 0.10149385223500359543 0.22286542841912476698 0.062014648694168637844 -0.011001337355932607961 -0.2515544075405736768 0.10152101289011197793 -0.032547676883073757559 0.18592005597743999079 -0.33771441104074639838 0.069110291109162974577 -0.19988088146458449224 0.095718852158582695688 -0.078584068010633112422 0.024521644407174605224 -0.035246593861834825401 -0.0040962928277340736327 -0.014603755455850509631 0.17929709109008112877 0.13464739565058966853 -0.1241916696721546004 0.16279643665026391486 -0.024115839883095360752 -0.10686760351769082622 -0.12207680858764144438 -0.17928639145303165714 0.27347977430730524562 0.016110011642507859886 -0.027112801691897402828 0.038714404730203537397 -0.10193350870492644267 0.270374356917725156 -0.12746905625226517822 -0.027360890859030973649 -0.096740639707599246355;-0.11795590487735865826 -0.54834271153026581391 0.44010815911122580513 0.04419261919776398817 0.41868113401964290876 -0.23575542875185512282 2.6890646728804090682e-05 -0.16100825637954116476 -0.040531373061164395477 -0.032709858966329115326 -0.018866273936675181239 0.06283362957744267896 0.092755994643156369772 0.13015256573108546778 -0.092051753539830957762 0.072581469501012269019 -0.14413813540616435271 0.21341461428895597274 0.060652978963985769434 0.35749044818347680552 -0.23474644577283390601 0.052508033677939221218 -0.097231316145296370346 0.054250899742049565888 0.10304072261973526436 -0.062140732564670862759 0.0068472315738557845699 -0.12872350751239747257 0.035655015918219366833 0.047580148831543961352 -0.093257988027690350008 -0.0095651246113514151737 0.088116548757652110591 -0.096491681499656978271 0.10291593367216612942 -0.25809631696028284553 -0.049243551487684521228 -0.075751801759133360892 -0.015567236124414053633 0.12471545301383091253 -0.008823308025019668821 0.37438919515263530124 0.017309052179465544974 0.14680183351304396111 -0.15563681574101445593;-0.38346280611540678462 -0.4564007697576243916 -0.28389393274311341964 0.41983848574878612769 0.51347587793167304149 0.22295885300515588812 -0.32934812100648375166 -0.41976985741826039478 0.050323457981948031825 0.082369230223173314775 -0.016338085426948235901 0.086510487454697443388 0.052939501502840512204 0.32483799059202578263 0.015906071696190710041 -0.29624373687703120517 -0.36358383539211425184 -0.339739299968380426 0.23428671090706890134 0.38927606594428615372 0.17355242174295137936 -0.088010769546935888052 -0.049928469317392622229 0.17473814915034230344 0.13057927223594206767 0.036065936454086122698 -0.14396712179838599965 0.018314614132308462691 -0.020810690153125040169 -0.064988242219426145541 -0.1872758933668452197 -0.2582245774470918187 -0.056619124420273891918 0.088808316616817095657 0.29090527896869083913 0.015859528237866744871 0.038600966357811183904 0.094533499198405382402 0.074209112123720333276 0.075552856994912279132 -0.020464623985314567278 -0.052498083558779537472 -0.090279737063858139789 -0.02179962513343223357 -0.049135882195478534917;0.40951863810379873776 -0.44409998451896737226 0.54236099273283167044 -0.2847469288211400551 0.18942291832622409897 -0.31625175658498044795 -0.16036998446676331564 -0.4056522235861118042 0.17903728450539990735 0.079679828412620931632 0.12754090890276045811 0.018093935797900088241 -0.033926349306836418862 0.17040933970394056551 -0.22966511305675413324 0.19398938820126893079 -0.23609864056586532532 0.3334894542074196 -0.01587065921404325064 0.0073358394523697391387 -0.18363628419723301843 -0.15103818219455208971 -0.24100117910505614027 0.11274586597570326885 0.037964106822328660962 0.10100994619292351373 -0.076704793759737571746 -0.09116511686701331274 0.13845304372451150421 -0.021599512201980232418 0.078086891960588378225 0.043708086600623030638 -0.0013270672736192274527 0.00020263687194692348026 0.20408470656888630379 -0.13960164673691652371 0.11482247261083063095 -0.030438326332613719477 0.20624592166033378637 -0.089916055380950321574 0.14166305093767730949 -0.092553148883513403078 0.025030134133985162265 -0.088582530578153462208 0.044818799060990024974;-1.2016019727439124498 0.011925118222506206345 0.27624465754878768653 0.75283409415754432015 -0.095751163250704873775 -0.22720960016991753605 -0.020227082655991442117 0.1310830898373533393 0.10440960205248964177 -0.009122968519507302157 0.014565013338057666847 -0.055500604302727012118 0.31694717266584049309 0.032587702394448310461 -0.1098031866095839082 -0.66226063797818668366 -0.0025464317231534520924 0.20582202984875866414 0.55425166204841647133 -0.068956522772310152591 -0.11114618029706375968 -0.092044758117215394466 -0.027246586429484877939 0.091034859529343509221 -0.057237970095797424674 0.029596000528668436197 -0.015374137795522688915 0.16160615539150949282 0.094312248238754628482 -0.1120080900482948727 -0.35031556753679365945 -0.055764080595430483289 0.10340879423176142782 0.2517793212580337614 -0.077715476562266780358 -0.00085964657187880336164 -0.086415922813787640622 -0.044925052857839001264 0.012450295938017486713 -0.051514360447246901331 0.023055383671588901284 -0.055104370109380497456 0.085305192199456814084 0.06344652651158477763 0.030168233283309326548;-0.19277074739377392243 -0.55605317600992953952 -0.12684971654298532462 0.28407803142499143956 0.68288172737000218948 0.08590426279220425565 -0.083265120120137370296 -0.33650419534957648482 -0.056900694078171276669 -0.0083195925819297064652 0.037088733274974208798 -0.057406577858124294145 0.033475815466770211803 0.00049364293164234906985 0.11331037507812272147 -0.12976188776288266613 -0.35206424212186981926 0.086610182947194178094 0.00083488949100198137782 0.42807087470100202431 -0.075304417182372795914 -0.133837459166612327 -0.24027442136590881905 -0.1213561808199390829 -0.10275768157924666801 0.062812286982343590314 0.032508697035252671903 0.14595908559666478932 -0.023797196424437484785 0.074067770052461276431 0.041592648981254753959 -0.18848720461527485037 0.19934991728079534679 0.1207439697757566599 0.20624946601920790545 -0.054279891227460519421 0.047370144567429182947 -0.22348084819206975871 -0.090070399556815394781 -0.030812335982529019673 0.020376759086057107118 -0.034386496450426323745 -0.092395936963746122528 -0.14383056615416381363 0.037436089366897004616;-0.93576775042037219077 0.2302553916854793159 -0.10806575436835583193 0.33635357652005576368 -0.072736782797040072657 0.36108444530587990862 0.28748432509213051045 -0.036762735430730046626 -0.11216677411949747822 0.027262738127280514155 -0.16615068688464201818 -0.2290486857141862953 0.13030661677948035537 -0.11843154998844070136 -0.025335867196537738971 -0.10607144693645517708 0.1593366948716745668 0.013663907092320116271 0.034624960533367554749 0.041772635992775801472 0.1672493284920255896 0.039968718526283190939 0.0010768944750338977495 -0.073041914925101952827 0.07082227579559612074 -0.03875744434276892636 -0.13634012615691792902 -0.030017792768364304212 -0.075792140230011448288 0.084158443777925362461 0.10004545039981692367 -0.015370670191826991263 -0.091766427703168507168 0.078964057219307132174 0.094884282866081276486 0.081017044463315257552 -0.091797437891160946211 0.22398029118510509594 0.1290575089630526251 -0.038706338110602506175 0.15909135090785458955 0.090091703671481865312 0.0037320026580315041748 -0.091054829516671181855 -0.13735613802664894956;0.21295367416163268892 0.57838181751407713449 0.16768027155732501132 -0.21833147204245614836 -0.50904466203653853107 -0.14785121693152492028 0.030130094305954056855 0.10431311572105761432 0.11130022691061955409 -0.03666903912707909774 -0.24790939639206957534 0.056553021120051200077 -0.10975181960815476312 0.015275098808848574031 -0.06511455156258594279 0.17543284945105944161 0.33783827116834314053 0.099862073817240784579 -0.12600186200633980982 -0.32170994009416054027 -0.17406120194788471389 0.029599372569190582349 0.25938446985577690018 0.13350361494267853901 -0.042449712787018888116 -0.0081350669087727027484 -0.095878686080675526449 0.020325965882430213627 -0.25404578670926208916 -0.081672660561074944541 0.16406590735196283082 0.21704175110979062602 0.094411201193866797765 -0.16212432515360636343 -0.10162790038793284575 -0.18835036293710080701 0.1490807446092536348 0.27785814867306962705 0.029536377055444457129 -0.019288674858171782345 -0.055267124667021411133 0.021451441973037509853 -0.028930859273179246327 -0.018471760472635392891 -0.053042516673946236982;0.16529456484159454899 0.081727801519980713962 -0.16327584265859029777 -0.12269069640310970026 0.01929943004463525319 0.042334008637514408679 -0.012054260540243225824 0.10081319410937894521 -0.11588934558220545523 0.11248173145201993683 0.04988099576832420029 -0.12479904259892622698 0.093697017421546652249 -0.084597388351448768451 0.21289733837602575761 -0.052621572005911290693 0.012661940673218158304 -0.12875045854198591266 -0.2750666406122299068 -0.091048320064841786747 -0.01387498600646544511 0.0024600648155461771194 0.05391875700713774644 -0.098741466862604043708 -0.092907765848203677228 -0.099979269103518605966 -0.1063347184449450894 0.15678992941297920094 -0.057184298098914086717 0.1303462881412473795 0.18997296835424470896 -0.14627311508726703604 -0.10820920944219969417 -0.0090147123298674469716 -0.042950869532487528923 -0.080921457950223277256 -0.33087193495014227684 -0.02315529257264539037 -0.056431800900881151639 -0.021145140897221394172 -0.17787675600802480003 0.093861631282941504484 0.22620055535228855703 0.083590593183835881774 0.019174745446267217608;0.11698425206284815414 -0.16016499771565634314 0.066505997520379916965 -0.064829399280449978571 0.18096086530440275153 -0.157724208027017615 -0.39239666347822671488 -0.12552798056334940613 0.028089952996039543875 0.14226245899821282626 -0.075819558999839303803 0.012727294108318805421 0.31536112454372622338 -0.07660894270485965607 0.086484958910332879189 -0.41810745674010196815 0.12970833792422736819 -0.030017018817835972033 0.074191496972612777649 0.059918128096869416321 -0.09302935074561308193 -0.10832171382511836255 -0.0095347070209734572505 -0.15857205623898082414 0.12992320853799446678 0.021741933103579767772 0.2603529674881937539 -0.068612298655076661702 0.020635547318880332474 0.084898169242682258728 -0.16378784886795008657 0.080455755578446946918 0.012234243149482850258 0.10494695786680380278 -0.02853585979595651273 -0.21551692605496686195 0.068540484121122263739 -0.020669015505332909849 0.17303206550620725546 0.041367098925241728435 0.025774626973658371076 -0.0066696111921361322938 -0.0079537716344769797405 0.081846087512187665203 -0.08114320501039262723;-0.017039943007524534918 -0.40060457439528474044 -0.38614561715106326956 -0.048715445293032635932 0.17318002471310736667 0.40927869500181152107 -0.059612045740353940271 -0.024751612979598752035 -0.19003493881571562052 0.13543550100345358445 -0.0023919146493411257669 -0.20420316187420428644 0.050563975003674994924 0.053273288972528649865 0.33740498787011086179 0.041599655494068174533 -0.092507908432309451929 -0.2141937509737683043 0.042766859283433718286 0.033848587431438710571 0.094408548565270991593 -0.066313106190562215447 -0.20539909794236510532 -0.070080690500574152613 0.00036619762676341066632 0.15984160360955984581 0.02684729888570671491 0.015917947326552536746 0.17380175454048957251 -0.054960974420291630604 0.040041669270156787785 -0.066999224812683166874 -0.1243887534889310531 -0.041838313077163201414 -0.096439120710635858891 0.0389711011075968769 -0.056211769433391789441 0.15362777526954080054 -0.028574587068015605551 -0.048312420205964767828 0.019604509965523139736 -0.067927439962525676398 0.10061064030114091894 0.031364855623718670974 0.10501858381743428561;0.21740911493135350874 0.14845038015548769894 0.11515271897445300553 0.042385619792298469266 -0.25980231357359906408 0.074105990839000129844 -0.010612561481385701656 0.2917878696548935058 0.10319218252616529918 0.032282002260784772862 -0.13877591845230979883 -0.18132884489182488075 0.035855676469535441298 0.08427852058244005018 0.024749547101871889609 0.014538071753398950497 -0.0066865693654152916214 0.039012004969525948539 -0.22299354825319522844 -0.0062484242617788926522 -0.099886917816757153643 0.14184531038406270054 0.21271452487596512193 0.14490103551776081781 0.088149209466273401037 -0.21455819373485449097 0.012549492416418662338 -0.096823941173387176318 0.13490773007596013056 -0.15992759603353434716 -0.15327979649919573624 0.080721500614819016728 0.13414900080932865012 0.01959545392442590267 -0.038205754300213348729 0.0996455509397842637 0.052247446007788106437 -0.018314449579920403371 -0.1143915686940362858 0.026473136247175555608 -0.17180685985064148014 0.062725480449401377347 -0.075268042073924804058 0.039165410487904103731 0.049018260773587341017;-0.23345905102790839858 0.028331427025979113998 0.029776385599179847063 0.18550120082126231313 -0.081368847547014760968 -0.030471809613093751856 -0.049388960655637317854 -0.10660466667713811018 -0.062617020366433601142 -0.18608962322269592682 0.16733874574193330353 -0.04306057907990523681 0.20391492099512209535 0.031888714309180721251 0.098924234313884237824 -0.25892744826249430856 -0.080369671743519374707 0.08344940143171508673 -0.011976886728797356621 0.017757569771573274847 -0.16049764392515375455 0.12659325612433738883 -0.070415760574904825986 -0.10023581468491116198 -0.019208818657267819063 -0.071781091151128365024 -0.026829784707497764118 0.14425955209503915633 -0.094057502159767353289 0.034710116253046000012 0.05213822854653049621 0.23557888810447022432 -0.043079121946908729979 -0.092539257980382885749 0.014037794026805943889 -0.11820394457928470877 -0.18994781746469074912 0.15250634061118736873 -0.079166562193543260628 0.15804634654283228334 -0.052320905820889343496 0.085374774612496887038 -0.079610147708396181154 -0.1697478870069607515 0.11405352016048153629];

% Layer 2
b2 = [-0.64362579926865870483;-0.44518099329128407726;0.86864505540247105575];
LW2_1 = [0.15880845445478333766 -0.027310395191954987826 0.2113991174379853677 -0.44667717911274373854 0.20348855677491919924 -0.41799185856117343496 0.26163150371752275092 -1.3677830038765865783 -0.07541255340149108366 -0.22060922218462819533 0.12402074975862731332 0.22387290017015051835 -0.85242537323900913204 0.16312884206094974138 0.1713264668114227729 -1.0171583504282377675;0.3154930020463625473 0.8242563169195913364 -0.32246079656303094918 0.51914662471409600553 -0.63919733630074804243 -0.88714322817777990782 -0.62514823816701825532 0.071285665314561680317 -0.94311507125350679814 0.28010596254312736253 0.83843645520505039048 -0.31053862242251917269 0.19113215704561586916 -0.30721094016210076516 0.69807133392852305231 0.34723225142370800489;-0.51585563839511805462 0.98697545015580123717 0.82170553852383876325 -0.98120216242768176773 0.69843639874456930894 -0.55766125628309570761 0.92633879417639308773 0.94506122802999636967 0.60544483055066766752 -0.43123213985219288613 1.0200022248016578086 0.3435237048934416948 -0.30078241332956268117 -1.0336118560529050647 0.73745041724355375745 0.25132817462440137923];

% Output 1
y1_step1.ymin = -1;
y1_step1.gain = [2.14717155141387;2.32930143861115;2.14979207651404];
y1_step1.xoffset = [-0.907247595953878;-0.415534429080026;-0.42933506738059];

% ===== SIMULATION ========

% Format Input Arguments
isCellX = iscell(X);
if ~isCellX
    X = {X};
end
if (nargin < 2), error('Initial input states Xi argument needed.'); end

% Dimensions
TS = size(X,2); % timesteps
if ~isempty(X)
    Q = size(X{1},2); % samples/series
elseif ~isempty(Xi)
    Q = size(Xi{1},2);
else
    Q = 0;
end

% Input 1 Delay States
Xd1 = cell(1,16);
for ts=1:15
    Xd1{ts} = mapminmax_apply(Xi{1,ts},x1_step1);
end

% Input 2 Delay States
Xd2 = cell(1,16);
for ts=1:15
    Xd2{ts} = mapminmax_apply(Xi{2,ts},x2_step1);
end

% Allocate Outputs
Y = cell(1,TS);

% Time loop
for ts=1:TS
    
    % Rotating delay state position
    xdts = mod(ts+14,16)+1;
    
    % Input 1
    Xd1{xdts} = mapminmax_apply(X{1,ts},x1_step1);
    
    % Input 2
    Xd2{xdts} = mapminmax_apply(X{2,ts},x2_step1);
    
    % Layer 1
    tapdelay1 = cat(1,Xd1{mod(xdts-[1 2 3 4 5 6 7 8 9 10 11 12 13 14 15]-1,16)+1});
    tapdelay2 = cat(1,Xd2{mod(xdts-[1 2 3 4 5 6 7 8 9 10 11 12 13 14 15]-1,16)+1});
    a1 = tansig_apply(repmat(b1,1,Q) + IW1_1*tapdelay1 + IW1_2*tapdelay2);
    
    % Layer 2
    a2 = repmat(b2,1,Q) + LW2_1*a1;
    
    % Output 1
    Y{1,ts} = mapminmax_reverse(a2,y1_step1);
end

% Final Delay States
finalxts = TS+(1: 15);
xits = finalxts(finalxts<=15);
xts = finalxts(finalxts>15)-15;
Xf = [Xi(:,xits) X(:,xts)];
Af = cell(2,0);

% Format Output Arguments
if ~isCellX
    Y = cell2mat(Y);
end
end

% ===== MODULE FUNCTIONS ========

% Map Minimum and Maximum Input Processing Function
function y = mapminmax_apply(x,settings)
y = bsxfun(@minus,x,settings.xoffset);
y = bsxfun(@times,y,settings.gain);
y = bsxfun(@plus,y,settings.ymin);
end

% Sigmoid Symmetric Transfer Function
function a = tansig_apply(n,~)
a = 2 ./ (1 + exp(-2*n)) - 1;
end

% Map Minimum and Maximum Output Reverse-Processing Function
function x = mapminmax_reverse(y,settings)
x = bsxfun(@minus,y,settings.ymin);
x = bsxfun(@rdivide,x,settings.gain);
x = bsxfun(@plus,x,settings.xoffset);
end
